/* Copyright 2023 Sofia Cerè. All Rights Reserved.

Licensed under the Apache License, Version 2.0 (the "License");
you may not use this file except in compliance with the License.
You may obtain a copy of the License at

    http://www.apache.org/licenses/LICENSE-2.0
==============================================================================*/

#include "sign_detect_model_data.h"

// Keep model aligned to 8 bytes to guarantee aligned 64-bit accesses.
alignas(8) const unsigned char g_sign_detect_model_data[] = {
  0x1c, 0x00, 0x00, 0x00, 0x54, 0x46, 0x4c, 0x33, 0x14, 0x00, 0x20, 0x00,
  0x1c, 0x00, 0x18, 0x00, 0x14, 0x00, 0x10, 0x00, 0x0c, 0x00, 0x00, 0x00,
  0x08, 0x00, 0x04, 0x00, 0x14, 0x00, 0x00, 0x00, 0x1c, 0x00, 0x00, 0x00,
  0x80, 0x00, 0x00, 0x00, 0xd8, 0x00, 0x00, 0x00, 0x00, 0x1e, 0x00, 0x00,
  0x10, 0x1e, 0x00, 0x00, 0x98, 0x2f, 0x00, 0x00, 0x03, 0x00, 0x00, 0x00,
  0x01, 0x00, 0x00, 0x00, 0x04, 0x00, 0x00, 0x00, 0x32, 0xe1, 0xff, 0xff,
  0x0c, 0x00, 0x00, 0x00, 0x1c, 0x00, 0x00, 0x00, 0x3c, 0x00, 0x00, 0x00,
  0x0f, 0x00, 0x00, 0x00, 0x73, 0x65, 0x72, 0x76, 0x69, 0x6e, 0x67, 0x5f,
  0x64, 0x65, 0x66, 0x61, 0x75, 0x6c, 0x74, 0x00, 0x01, 0x00, 0x00, 0x00,
  0x04, 0x00, 0x00, 0x00, 0x9c, 0xff, 0xff, 0xff, 0x12, 0x00, 0x00, 0x00,
  0x04, 0x00, 0x00, 0x00, 0x08, 0x00, 0x00, 0x00, 0x6f, 0x75, 0x74, 0x70,
  0x75, 0x74, 0x5f, 0x30, 0x00, 0x00, 0x00, 0x00, 0x01, 0x00, 0x00, 0x00,
  0x04, 0x00, 0x00, 0x00, 0xd6, 0xe1, 0xff, 0xff, 0x04, 0x00, 0x00, 0x00,
  0x01, 0x00, 0x00, 0x00, 0x78, 0x00, 0x00, 0x00, 0x02, 0x00, 0x00, 0x00,
  0x34, 0x00, 0x00, 0x00, 0x04, 0x00, 0x00, 0x00, 0xdc, 0xff, 0xff, 0xff,
  0x15, 0x00, 0x00, 0x00, 0x04, 0x00, 0x00, 0x00, 0x13, 0x00, 0x00, 0x00,
  0x43, 0x4f, 0x4e, 0x56, 0x45, 0x52, 0x53, 0x49, 0x4f, 0x4e, 0x5f, 0x4d,
  0x45, 0x54, 0x41, 0x44, 0x41, 0x54, 0x41, 0x00, 0x08, 0x00, 0x0c, 0x00,
  0x08, 0x00, 0x04, 0x00, 0x08, 0x00, 0x00, 0x00, 0x14, 0x00, 0x00, 0x00,
  0x04, 0x00, 0x00, 0x00, 0x13, 0x00, 0x00, 0x00, 0x6d, 0x69, 0x6e, 0x5f,
  0x72, 0x75, 0x6e, 0x74, 0x69, 0x6d, 0x65, 0x5f, 0x76, 0x65, 0x72, 0x73,
  0x69, 0x6f, 0x6e, 0x00, 0x16, 0x00, 0x00, 0x00, 0x24, 0x1d, 0x00, 0x00,
  0x1c, 0x1d, 0x00, 0x00, 0x04, 0x1d, 0x00, 0x00, 0xec, 0x1c, 0x00, 0x00,
  0xdc, 0x18, 0x00, 0x00, 0x4c, 0x18, 0x00, 0x00, 0x3c, 0x06, 0x00, 0x00,
  0xec, 0x05, 0x00, 0x00, 0x5c, 0x01, 0x00, 0x00, 0x2c, 0x01, 0x00, 0x00,
  0xd4, 0x00, 0x00, 0x00, 0xcc, 0x00, 0x00, 0x00, 0xc4, 0x00, 0x00, 0x00,
  0xbc, 0x00, 0x00, 0x00, 0xb4, 0x00, 0x00, 0x00, 0xac, 0x00, 0x00, 0x00,
  0xa4, 0x00, 0x00, 0x00, 0x9c, 0x00, 0x00, 0x00, 0x94, 0x00, 0x00, 0x00,
  0x8c, 0x00, 0x00, 0x00, 0x6c, 0x00, 0x00, 0x00, 0x04, 0x00, 0x00, 0x00,
  0x9e, 0xe2, 0xff, 0xff, 0x04, 0x00, 0x00, 0x00, 0x58, 0x00, 0x00, 0x00,
  0x0c, 0x00, 0x00, 0x00, 0x08, 0x00, 0x0e, 0x00, 0x08, 0x00, 0x04, 0x00,
  0x08, 0x00, 0x00, 0x00, 0x10, 0x00, 0x00, 0x00, 0x28, 0x00, 0x00, 0x00,
  0x00, 0x00, 0x06, 0x00, 0x08, 0x00, 0x04, 0x00, 0x06, 0x00, 0x00, 0x00,
  0x04, 0x00, 0x00, 0x00, 0x01, 0x00, 0x00, 0x00, 0xeb, 0x03, 0x00, 0x00,
  0x00, 0x00, 0x0a, 0x00, 0x10, 0x00, 0x0c, 0x00, 0x08, 0x00, 0x04, 0x00,
  0x0a, 0x00, 0x00, 0x00, 0x03, 0x00, 0x00, 0x00, 0x02, 0x00, 0x00, 0x00,
  0x04, 0x00, 0x00, 0x00, 0x06, 0x00, 0x00, 0x00, 0x32, 0x2e, 0x31, 0x31,
  0x2e, 0x31, 0x00, 0x00, 0x02, 0xe3, 0xff, 0xff, 0x04, 0x00, 0x00, 0x00,
  0x10, 0x00, 0x00, 0x00, 0x31, 0x2e, 0x31, 0x34, 0x2e, 0x30, 0x00, 0x00,
  0x00, 0x00, 0x00, 0x00, 0x00, 0x00, 0x00, 0x00, 0xcc, 0xd2, 0xff, 0xff,
  0xd0, 0xd2, 0xff, 0xff, 0xd4, 0xd2, 0xff, 0xff, 0xd8, 0xd2, 0xff, 0xff,
  0xdc, 0xd2, 0xff, 0xff, 0xe0, 0xd2, 0xff, 0xff, 0xe4, 0xd2, 0xff, 0xff,
  0xe8, 0xd2, 0xff, 0xff, 0xec, 0xd2, 0xff, 0xff, 0x42, 0xe3, 0xff, 0xff,
  0x04, 0x00, 0x00, 0x00, 0x48, 0x00, 0x00, 0x00, 0x50, 0x74, 0x0a, 0x4e,
  0x9c, 0xb3, 0x44, 0xad, 0x81, 0x9a, 0xa5, 0x00, 0x3c, 0xae, 0x78, 0xac,
  0x7f, 0x29, 0x6c, 0x7f, 0xbf, 0x0d, 0xc5, 0x9b, 0x32, 0x16, 0xab, 0x81,
  0xe5, 0x08, 0x91, 0x70, 0xd5, 0x7f, 0x2f, 0x72, 0x61, 0xfa, 0xd8, 0x7f,
  0xfc, 0x03, 0x45, 0x71, 0xee, 0xef, 0x4a, 0x27, 0x71, 0x7f, 0x54, 0xc1,
  0x3e, 0x28, 0x59, 0x7f, 0x1e, 0x3f, 0xf8, 0xd8, 0xbd, 0xa8, 0x93, 0x73,
  0x3a, 0x69, 0x4e, 0x7f, 0x42, 0xc8, 0x55, 0xed, 0x96, 0xe3, 0xff, 0xff,
  0x04, 0x00, 0x00, 0x00, 0x20, 0x00, 0x00, 0x00, 0x84, 0x16, 0x00, 0x00,
  0xfe, 0x0d, 0x00, 0x00, 0x24, 0x0e, 0x00, 0x00, 0xdf, 0xf8, 0xff, 0xff,
  0x3b, 0xe9, 0xff, 0xff, 0x35, 0xf9, 0xff, 0xff, 0xa7, 0x19, 0x00, 0x00,
  0xae, 0xea, 0xff, 0xff, 0xc2, 0xe3, 0xff, 0xff, 0x04, 0x00, 0x00, 0x00,
  0x80, 0x04, 0x00, 0x00, 0x5e, 0x37, 0x7e, 0x3b, 0x03, 0x05, 0x32, 0x2d,
  0x1b, 0x4a, 0x21, 0x04, 0xcd, 0x0a, 0x40, 0xb4, 0x22, 0x43, 0x12, 0x2e,
  0xc3, 0xe7, 0x24, 0x09, 0x49, 0x28, 0x7f, 0x2c, 0x43, 0xf5, 0x2c, 0xc3,
  0xeb, 0x20, 0x21, 0x0e, 0xc2, 0x03, 0x38, 0xc4, 0x0a, 0x45, 0x5c, 0x2a,
  0x52, 0x40, 0x13, 0xcc, 0xf9, 0x36, 0xef, 0xef, 0xff, 0x2f, 0x50, 0x19,
  0x40, 0x3b, 0x0a, 0xeb, 0xbf, 0x0e, 0xde, 0xc9, 0x6b, 0x07, 0x3b, 0xef,
  0x09, 0xe7, 0x66, 0x08, 0xec, 0x0f, 0xea, 0x29, 0x0b, 0xe5, 0x1a, 0x2e,
  0xe3, 0xbd, 0xe0, 0xe5, 0x34, 0x50, 0x4d, 0x51, 0x65, 0xc8, 0x44, 0x92,
  0xf6, 0xf8, 0x3f, 0x23, 0x26, 0xee, 0x2a, 0xe0, 0xbf, 0xd5, 0x7f, 0xf4,
  0x09, 0x02, 0x36, 0xdf, 0xe6, 0x13, 0x45, 0xd2, 0x42, 0x27, 0x11, 0xcb,
  0xe6, 0x2d, 0xf1, 0x01, 0xc3, 0xc3, 0x13, 0xb8, 0x1e, 0x14, 0x11, 0xc1,
  0xb1, 0xdb, 0xdb, 0xe9, 0xff, 0x0b, 0xfa, 0xde, 0xbb, 0x15, 0x26, 0x32,
  0xff, 0xe3, 0xac, 0xc1, 0x26, 0x21, 0xfa, 0x04, 0x01, 0xe2, 0x38, 0x19,
  0x76, 0x32, 0x47, 0x3a, 0x1b, 0xd4, 0x33, 0x44, 0x29, 0x09, 0x67, 0xd7,
  0xf8, 0x01, 0x7f, 0x02, 0x55, 0x76, 0x10, 0x12, 0xc5, 0x0e, 0x4e, 0x28,
  0x3e, 0x7d, 0x22, 0x00, 0x2f, 0xf3, 0xf5, 0xc9, 0x2b, 0xa8, 0x70, 0xf4,
  0x28, 0xf1, 0x0a, 0xd0, 0x0d, 0x71, 0xf9, 0x30, 0xbe, 0x28, 0xbd, 0xe3,
  0x19, 0x5a, 0x66, 0x57, 0x3a, 0x0b, 0x3e, 0x1f, 0x33, 0xf6, 0x18, 0xff,
  0xb9, 0xb0, 0xcd, 0xbd, 0x59, 0xc9, 0x52, 0xc9, 0x39, 0xf3, 0xcf, 0x27,
  0xf2, 0xba, 0xdc, 0x30, 0x03, 0xe3, 0xa0, 0x18, 0xc2, 0xca, 0xec, 0xc9,
  0x25, 0xf5, 0x08, 0x25, 0x6d, 0xcf, 0x4b, 0xd3, 0x00, 0xca, 0xd7, 0xef,
  0xb4, 0xf0, 0x89, 0xdc, 0xc8, 0x21, 0xd0, 0x41, 0xd1, 0xf0, 0x51, 0x0b,
  0xe9, 0xf1, 0x2a, 0x41, 0x3e, 0xed, 0x49, 0x9b, 0x2a, 0xd5, 0x2b, 0xd2,
  0x81, 0xd8, 0xb9, 0xd5, 0xba, 0xc7, 0xcf, 0x2f, 0xfb, 0xfc, 0x58, 0xb8,
  0x2d, 0xf6, 0x29, 0x29, 0xe8, 0xf5, 0xc4, 0xd1, 0xba, 0xd0, 0x01, 0x12,
  0xa9, 0x2a, 0xc5, 0xf3, 0xf4, 0x3f, 0xeb, 0x02, 0x1c, 0x64, 0x30, 0x16,
  0xe9, 0x59, 0xd7, 0x25, 0xcd, 0xe8, 0xe2, 0xfb, 0x0e, 0x21, 0x30, 0xd4,
  0xb9, 0x7f, 0xd0, 0x10, 0xc3, 0x5a, 0xa5, 0x26, 0xf1, 0xe6, 0x13, 0x27,
  0x5b, 0x1c, 0x1e, 0x27, 0xd1, 0x00, 0xd5, 0xff, 0xe1, 0xd3, 0xf0, 0xb3,
  0xbf, 0x33, 0xb7, 0x25, 0xeb, 0x03, 0xc6, 0x45, 0xfa, 0x00, 0xce, 0xeb,
  0x59, 0x10, 0xce, 0x57, 0xa6, 0x24, 0xff, 0x3b, 0xf5, 0xb6, 0xe2, 0x3f,
  0xbc, 0x2b, 0xd1, 0xf7, 0x2f, 0x33, 0xdf, 0xef, 0x15, 0x44, 0x2b, 0x1a,
  0x04, 0x06, 0x2b, 0x2c, 0x19, 0x3f, 0x0b, 0xf3, 0x27, 0xfe, 0x2b, 0xd0,
  0x00, 0x1d, 0x2a, 0x1b, 0x24, 0x29, 0x7f, 0x38, 0x5c, 0x40, 0x21, 0x25,
  0xb7, 0x13, 0x54, 0xfb, 0x5a, 0xf2, 0x02, 0x0b, 0xb3, 0x27, 0x49, 0xf1,
  0x33, 0x25, 0xe9, 0x08, 0xf8, 0xae, 0x58, 0xce, 0x10, 0x4b, 0xd6, 0x44,
  0xd8, 0x10, 0xee, 0xd1, 0x52, 0xa6, 0x35, 0xf9, 0xe4, 0x05, 0x47, 0x25,
  0x51, 0x8f, 0x57, 0x96, 0xf2, 0xf3, 0x4b, 0x27, 0x2b, 0xee, 0x17, 0x20,
  0xe7, 0xf3, 0x10, 0xc6, 0xd1, 0xc2, 0x33, 0xd0, 0xcd, 0x0c, 0xe8, 0xea,
  0x2f, 0x01, 0xcf, 0xc4, 0x06, 0x12, 0x0a, 0xf9, 0x12, 0x7f, 0x2f, 0x0d,
  0xfa, 0xfd, 0x0e, 0x2a, 0xfb, 0xd9, 0xfc, 0xd8, 0xc7, 0x0d, 0xc6, 0xcc,
  0x16, 0x33, 0xcf, 0xf6, 0x20, 0x12, 0xc3, 0x35, 0xb6, 0x35, 0x1e, 0x73,
  0xf3, 0xf0, 0xc3, 0xf1, 0xd5, 0x4c, 0xc8, 0xdc, 0xb8, 0x45, 0x29, 0x1f,
  0x51, 0x1c, 0x47, 0x3e, 0x3b, 0x4e, 0x57, 0x43, 0x48, 0xc9, 0x00, 0xc5,
  0x51, 0x1d, 0x7f, 0x27, 0xf2, 0x4f, 0xf2, 0xce, 0x16, 0xe1, 0x27, 0x20,
  0x11, 0xf9, 0x2b, 0x1e, 0xe4, 0x35, 0x3f, 0x24, 0xee, 0xc9, 0x0c, 0xdb,
  0xf8, 0xc3, 0xf4, 0x31, 0xdd, 0xc1, 0x0d, 0x03, 0xf2, 0xcb, 0x01, 0x24,
  0xf8, 0xb8, 0x16, 0xf1, 0x1b, 0xf0, 0xf3, 0x03, 0xf0, 0xce, 0x10, 0xcb,
  0xc2, 0xed, 0x3b, 0x02, 0xef, 0xdc, 0x09, 0x46, 0x12, 0xeb, 0x0e, 0x1c,
  0xa9, 0xf0, 0xa5, 0x3c, 0x2c, 0xeb, 0xa7, 0x33, 0x02, 0xee, 0x0c, 0x34,
  0x04, 0x24, 0x15, 0xfb, 0x1f, 0xe8, 0x27, 0x22, 0x11, 0xd4, 0x50, 0xf8,
  0x2c, 0x12, 0x1e, 0x02, 0x0f, 0x2b, 0x1b, 0x1c, 0x03, 0xa7, 0xfa, 0xdd,
  0x05, 0x19, 0x6d, 0x14, 0x5e, 0xa4, 0x78, 0xc8, 0x27, 0x2b, 0x7f, 0xff,
  0x7e, 0xab, 0x67, 0xb9, 0x13, 0xc1, 0x35, 0x16, 0x51, 0x38, 0xe6, 0xfa,
  0xe5, 0xb6, 0x67, 0xbe, 0xc9, 0xbc, 0xf5, 0x2a, 0xf4, 0x4e, 0xf0, 0x3e,
  0xd0, 0x95, 0xe9, 0xaa, 0x19, 0x31, 0xb5, 0x26, 0xd9, 0xb7, 0xce, 0x2d,
  0xf9, 0x33, 0xb9, 0x50, 0xac, 0x2f, 0x93, 0xbc, 0xc5, 0x58, 0xe2, 0x48,
  0xd7, 0x81, 0x41, 0x9b, 0x31, 0x14, 0xb9, 0xe5, 0xd5, 0xf8, 0x34, 0x02,
  0xfe, 0x3e, 0xf7, 0xde, 0x98, 0x3d, 0xa4, 0xd3, 0xdd, 0x0b, 0xc1, 0x06,
  0xf5, 0xb0, 0x09, 0xe0, 0xd8, 0x22, 0xb6, 0x48, 0xf2, 0xe8, 0xd7, 0xdb,
  0x44, 0x4b, 0xc9, 0xfb, 0xde, 0xf6, 0xf5, 0x2c, 0x0e, 0xf0, 0x1c, 0xf8,
  0xd0, 0xee, 0xed, 0x09, 0xee, 0xd4, 0xd9, 0x0f, 0xd0, 0x15, 0xc3, 0x38,
  0xe0, 0x24, 0xeb, 0x3a, 0x35, 0x1c, 0x1e, 0x35, 0x13, 0x24, 0x50, 0x2e,
  0x52, 0xc1, 0x2e, 0xdc, 0xf1, 0xd2, 0x5c, 0x2e, 0x16, 0x18, 0xcd, 0xf8,
  0x0e, 0x15, 0xf1, 0xf4, 0x7f, 0x0b, 0x35, 0x13, 0x1d, 0xd5, 0x7c, 0x08,
  0xf3, 0x3d, 0x3a, 0xfa, 0x01, 0x24, 0x0a, 0xe1, 0x02, 0x0f, 0xee, 0xff,
  0xe4, 0xee, 0x62, 0xce, 0xf8, 0xfd, 0x11, 0x44, 0x51, 0x11, 0xf8, 0xdf,
  0x01, 0xc1, 0x2f, 0xeb, 0x4c, 0xb3, 0x01, 0x17, 0xcb, 0x11, 0xac, 0x44,
  0xcd, 0xd7, 0xa1, 0xff, 0x7f, 0x2c, 0x5b, 0xd1, 0x57, 0xdc, 0x1e, 0xd3,
  0x10, 0x04, 0xc8, 0x0c, 0xdd, 0xdb, 0xed, 0xc7, 0xe9, 0xfb, 0xba, 0x0b,
  0xc6, 0x0a, 0x16, 0xd6, 0x37, 0xc4, 0x6e, 0x43, 0x61, 0x13, 0xf4, 0x07,
  0x48, 0xe8, 0x35, 0x03, 0xf8, 0xf9, 0xc6, 0xde, 0xf8, 0xc3, 0xbf, 0x2a,
  0xbc, 0x13, 0x34, 0x30, 0xd3, 0x25, 0xd8, 0x3c, 0xe7, 0xf5, 0x48, 0xef,
  0x0d, 0x1e, 0xb7, 0xf2, 0xc2, 0x2a, 0xcc, 0xef, 0x5a, 0x18, 0x58, 0x0c,
  0x24, 0xd3, 0x19, 0x2c, 0x9f, 0xea, 0xd4, 0xe9, 0x07, 0x1a, 0xf3, 0x0a,
  0x27, 0x1c, 0xf8, 0xf1, 0x0a, 0xda, 0x03, 0xed, 0x3e, 0x0b, 0x4c, 0xdd,
  0x11, 0xe2, 0x2c, 0x31, 0x98, 0xd3, 0xac, 0xce, 0xf8, 0xfd, 0xa6, 0xfa,
  0xf8, 0xf6, 0x2a, 0x23, 0x04, 0x02, 0x0a, 0xca, 0x7f, 0x2c, 0x51, 0xf9,
  0x27, 0xc6, 0x25, 0xe9, 0x47, 0xfe, 0x17, 0xc8, 0xb9, 0x0f, 0x1c, 0xd4,
  0xec, 0x75, 0xb2, 0x2b, 0xb6, 0xe1, 0xb2, 0xdb, 0x02, 0x37, 0x54, 0x33,
  0x43, 0xf0, 0xe4, 0x3b, 0x1e, 0x53, 0x12, 0xd6, 0x15, 0xd0, 0x20, 0xed,
  0xca, 0x5d, 0x90, 0xff, 0xc5, 0x4f, 0x1f, 0x37, 0xfe, 0xb7, 0x3f, 0xe3,
  0x38, 0x16, 0x2c, 0x36, 0xed, 0x7f, 0xbf, 0x5b, 0xca, 0x01, 0xa6, 0xd4,
  0xea, 0x44, 0xf1, 0x25, 0x27, 0xf8, 0xb9, 0x0d, 0xf8, 0xfd, 0x05, 0xdc,
  0x0e, 0x18, 0x00, 0x2d, 0x26, 0x0a, 0x41, 0xf4, 0xf6, 0x17, 0x08, 0xd4,
  0xfc, 0x6f, 0x3c, 0x2c, 0xf6, 0xf4, 0x08, 0xce, 0x24, 0x06, 0xfa, 0x67,
  0x06, 0xc1, 0xd5, 0xc4, 0xfb, 0x10, 0xdb, 0x0b, 0xd8, 0x3f, 0xb7, 0xde,
  0x10, 0x70, 0x10, 0x49, 0x31, 0x0a, 0xf0, 0x14, 0xca, 0x4d, 0xe6, 0x02,
  0x0d, 0x10, 0x81, 0x16, 0xd6, 0x53, 0xf1, 0x0d, 0x07, 0x55, 0xdc, 0xe9,
  0xc3, 0x0b, 0xe7, 0x16, 0x56, 0xe9, 0xeb, 0x14, 0x0f, 0x31, 0x19, 0x00,
  0x15, 0x2c, 0xef, 0x2b, 0xf7, 0x2c, 0xbc, 0x05, 0xff, 0xe8, 0xe0, 0x19,
  0xe9, 0x26, 0xed, 0x1f, 0x0a, 0x05, 0x14, 0x31, 0x10, 0xbc, 0x35, 0xd5,
  0xed, 0x2a, 0x53, 0x48, 0x52, 0xe9, 0x29, 0xc9, 0x04, 0x39, 0x33, 0x1e,
  0x3a, 0xfc, 0x4a, 0xf8, 0xd2, 0x4a, 0x4d, 0x3e, 0x6b, 0xc8, 0x5d, 0x9f,
  0x20, 0x23, 0x2a, 0xfc, 0x34, 0xd8, 0x1c, 0x86, 0xb6, 0xa2, 0x7f, 0x1a,
  0x4b, 0x41, 0x5b, 0x09, 0xd1, 0xb5, 0x3e, 0xda, 0x4c, 0x35, 0x36, 0xe8,
  0xa2, 0xe2, 0x1c, 0x09, 0x4e, 0xe8, 0xff, 0xff, 0x04, 0x00, 0x00, 0x00,
  0x40, 0x00, 0x00, 0x00, 0x95, 0x07, 0x00, 0x00, 0x2b, 0x07, 0x00, 0x00,
  0x28, 0xf6, 0xff, 0xff, 0x9c, 0xfe, 0xff, 0xff, 0x23, 0x05, 0x00, 0x00,
  0x4f, 0xfe, 0xff, 0xff, 0x32, 0x05, 0x00, 0x00, 0xb0, 0xe3, 0xff, 0xff,
  0x17, 0x00, 0x00, 0x00, 0x1a, 0xff, 0xff, 0xff, 0xbf, 0x07, 0x00, 0x00,
  0xa2, 0x06, 0x00, 0x00, 0x7c, 0x07, 0x00, 0x00, 0x1f, 0xfe, 0xff, 0xff,
  0x70, 0x04, 0x00, 0x00, 0x36, 0x03, 0x00, 0x00, 0x9a, 0xe8, 0xff, 0xff,
  0x04, 0x00, 0x00, 0x00, 0x00, 0x12, 0x00, 0x00, 0x03, 0x28, 0xb5, 0xed,
  0xdc, 0xe8, 0x17, 0xc0, 0x06, 0xe7, 0xc6, 0xef, 0xd9, 0x95, 0x0a, 0x05,
  0xd2, 0x03, 0xcd, 0xd7, 0xdf, 0xcc, 0x2b, 0xc9, 0xe6, 0xc3, 0xc6, 0x82,
  0xd0, 0xc9, 0x36, 0xba, 0xd6, 0xc6, 0xfd, 0xd2, 0xfe, 0x11, 0xd0, 0x1b,
  0x19, 0xef, 0xd8, 0x8a, 0x21, 0x35, 0x17, 0xeb, 0xaf, 0x3f, 0xcc, 0xdb,
  0xe9, 0x1d, 0x21, 0xcc, 0x14, 0x13, 0x2f, 0xfa, 0xba, 0xe9, 0x16, 0x16,
  0xee, 0x15, 0x0e, 0xe1, 0x1e, 0x0e, 0x19, 0xe9, 0xed, 0x08, 0x33, 0xbd,
  0xb8, 0xef, 0x1d, 0x24, 0xce, 0x66, 0x05, 0xd4, 0xe0, 0x44, 0x4d, 0x23,
  0xf6, 0xe5, 0x1c, 0xd9, 0xee, 0x0a, 0x44, 0x19, 0x2a, 0x28, 0x0c, 0xf1,
  0x01, 0x07, 0x63, 0x1b, 0x24, 0xd5, 0x1c, 0x03, 0xd7, 0x17, 0x06, 0x38,
  0xf7, 0x33, 0x12, 0xc4, 0xc7, 0x19, 0x0f, 0x28, 0x37, 0xf5, 0x19, 0xe6,
  0x9c, 0x26, 0x01, 0x33, 0xde, 0x4d, 0x1d, 0x00, 0xe0, 0x01, 0x7f, 0x12,
  0xe0, 0xdd, 0xf2, 0xc1, 0x07, 0xfb, 0x18, 0x38, 0x19, 0xa6, 0x00, 0x1e,
  0x13, 0xc6, 0x10, 0x1b, 0xba, 0xd9, 0xfd, 0x1f, 0x81, 0x15, 0x13, 0xd2,
  0xe5, 0x98, 0xdd, 0xeb, 0x2a, 0x95, 0xa8, 0x04, 0x1a, 0x25, 0x0d, 0x09,
  0xef, 0x01, 0x0b, 0xb1, 0xbf, 0xc2, 0xe3, 0x02, 0xf2, 0xb2, 0xe4, 0xc1,
  0xdd, 0xf9, 0xd5, 0xda, 0xd5, 0xc6, 0x1d, 0xf2, 0xe5, 0x13, 0xee, 0xcf,
  0x2d, 0xf6, 0xc3, 0x27, 0x0c, 0x1d, 0x34, 0xfa, 0xdd, 0x05, 0x37, 0xc7,
  0x9d, 0x23, 0xc0, 0xd5, 0xef, 0x3f, 0xee, 0xd9, 0x0f, 0xd5, 0x13, 0xaa,
  0xfe, 0xf2, 0xe3, 0xe5, 0xcf, 0x53, 0xe7, 0xfd, 0xc9, 0x16, 0x1f, 0xef,
  0x1b, 0xb7, 0x1f, 0xaf, 0x14, 0x2b, 0x21, 0x44, 0x28, 0xf8, 0x1a, 0x0f,
  0xcd, 0xe3, 0xf8, 0x1f, 0xf1, 0x08, 0x22, 0xcf, 0xd0, 0xc7, 0x26, 0x4a,
  0x13, 0x4b, 0x37, 0x22, 0xe9, 0x41, 0x2f, 0x09, 0x30, 0xc1, 0xe8, 0xbc,
  0xcf, 0xee, 0xfd, 0x45, 0x10, 0x7b, 0x13, 0xd1, 0xea, 0x24, 0x67, 0x10,
  0xfd, 0xef, 0xf8, 0xe9, 0xf8, 0x46, 0x14, 0x16, 0x97, 0x28, 0x55, 0xa8,
  0xc2, 0xf8, 0x37, 0x51, 0x2f, 0xac, 0xfc, 0xba, 0x15, 0x10, 0x51, 0x24,
  0x29, 0xb5, 0x4a, 0x2c, 0x8a, 0xd9, 0x29, 0xad, 0xa7, 0x45, 0x3e, 0xd5,
  0xac, 0x08, 0xe8, 0xbd, 0x40, 0x23, 0xb8, 0xdd, 0x8b, 0xa3, 0xa4, 0xf4,
  0xee, 0xf2, 0x9d, 0xa3, 0xe0, 0x43, 0xf2, 0x5c, 0xe6, 0xa7, 0x40, 0x0e,
  0xc7, 0x4c, 0x49, 0x8e, 0xd9, 0xa6, 0x3c, 0x38, 0xa0, 0xbb, 0xe8, 0xa6,
  0xbe, 0x8c, 0xa8, 0x84, 0xab, 0xb3, 0x99, 0xca, 0x51, 0xe7, 0xc1, 0xca,
  0xe1, 0xf7, 0xb9, 0x4b, 0x07, 0xd0, 0xee, 0x3a, 0x1a, 0x45, 0x07, 0xbd,
  0x30, 0x8f, 0x8c, 0x9e, 0x9a, 0xb5, 0xf1, 0x85, 0xa4, 0xbe, 0xb5, 0xb4,
  0x4c, 0x58, 0x81, 0x9b, 0xc3, 0xc7, 0xef, 0x34, 0xce, 0x3d, 0xe7, 0x42,
  0x4b, 0x62, 0xf0, 0xa9, 0xe0, 0x64, 0xe2, 0x97, 0x4b, 0xa7, 0xc8, 0xe2,
  0x3d, 0xc5, 0x9b, 0xdc, 0x83, 0xe5, 0x46, 0x4a, 0xcc, 0x07, 0xee, 0xf7,
  0x26, 0x44, 0x3b, 0x45, 0x3c, 0xfb, 0x52, 0x0c, 0xec, 0x0e, 0xf3, 0xef,
  0x1e, 0xee, 0x3f, 0x01, 0xef, 0x01, 0xdd, 0xe3, 0xc7, 0x03, 0x09, 0xd4,
  0xfe, 0x6e, 0x32, 0xf9, 0xc5, 0x21, 0x69, 0x21, 0x07, 0x0e, 0xec, 0xe9,
  0xea, 0xca, 0xcd, 0x02, 0x37, 0x2f, 0x07, 0xb7, 0xdc, 0x0e, 0x7f, 0xed,
  0xe4, 0xb1, 0x02, 0x10, 0xb1, 0x0c, 0x00, 0x12, 0xdf, 0xed, 0xe1, 0xf8,
  0xe8, 0xf8, 0xe6, 0xfd, 0xfc, 0x15, 0x21, 0xe2, 0xd0, 0xcb, 0x0a, 0x20,
  0x12, 0x13, 0x0c, 0x20, 0x27, 0xc6, 0x2d, 0xd3, 0xe2, 0xef, 0xe9, 0x20,
  0x15, 0xe1, 0x2d, 0x07, 0xdd, 0x04, 0x2d, 0xd1, 0x2a, 0xdf, 0x63, 0xec,
  0xc5, 0xf8, 0xf9, 0x38, 0x00, 0x28, 0x17, 0xa4, 0xd6, 0x04, 0x18, 0x0e,
  0xd1, 0x36, 0x13, 0x05, 0x0f, 0xed, 0x44, 0x1e, 0x05, 0xec, 0xde, 0x18,
  0x15, 0x09, 0x01, 0xf8, 0x4c, 0x0a, 0x04, 0xeb, 0xf8, 0x0e, 0x05, 0xe0,
  0xdc, 0x10, 0x1e, 0x18, 0x01, 0xca, 0xe8, 0x02, 0x26, 0xe6, 0xd7, 0x2c,
  0x24, 0x02, 0xdd, 0x00, 0xea, 0x1b, 0x2a, 0x06, 0x2b, 0xd7, 0x2e, 0x21,
  0x2c, 0xfa, 0xe3, 0xdb, 0xce, 0xf1, 0xed, 0x06, 0x7f, 0x1b, 0x0b, 0x2f,
  0x47, 0x06, 0xfe, 0x37, 0x10, 0x3b, 0xe5, 0x0d, 0xec, 0x23, 0x07, 0x17,
  0x13, 0x0e, 0x07, 0x38, 0x24, 0xe8, 0xff, 0x0e, 0x1f, 0xfd, 0xa8, 0xd3,
  0xea, 0xe5, 0x2b, 0x1d, 0x38, 0xdc, 0xcf, 0xe3, 0x27, 0x01, 0x1e, 0x0a,
  0xe1, 0xe7, 0xd5, 0x1e, 0xc8, 0xe8, 0xed, 0xf7, 0x35, 0xf5, 0xcd, 0x30,
  0x57, 0xef, 0x1f, 0xf1, 0x0b, 0x03, 0xb2, 0x1b, 0xdd, 0xd8, 0x2a, 0x57,
  0xf6, 0x2e, 0xac, 0xe9, 0x33, 0xe5, 0x2d, 0x30, 0xeb, 0xcd, 0xb5, 0xec,
  0x18, 0x1a, 0x1e, 0x3a, 0xfe, 0xd3, 0xf0, 0xf6, 0xf9, 0x07, 0x41, 0xc7,
  0x15, 0x25, 0xd9, 0x1a, 0x17, 0xcd, 0xbf, 0x05, 0x1d, 0x0f, 0xed, 0xce,
  0x42, 0xdf, 0xf2, 0x2a, 0xe6, 0x20, 0xdf, 0x1b, 0xfc, 0xcb, 0x1f, 0x4c,
  0xf4, 0x01, 0x00, 0x0d, 0x0a, 0xc9, 0x41, 0x35, 0x10, 0x43, 0xd7, 0xd3,
  0xe7, 0x32, 0x30, 0xe7, 0x5d, 0x0e, 0xf2, 0x32, 0xe9, 0x27, 0x17, 0xcf,
  0xb8, 0x22, 0x3d, 0x03, 0xf2, 0xe6, 0xe5, 0xe2, 0x08, 0x0f, 0xd6, 0x0b,
  0x2a, 0x14, 0xfd, 0xe4, 0x10, 0x11, 0x4b, 0x29, 0x09, 0xc5, 0xcf, 0x1f,
  0xea, 0x37, 0x33, 0xd2, 0xf5, 0xf0, 0x0b, 0x0d, 0x09, 0x24, 0xf9, 0x2b,
  0xfc, 0x31, 0xfc, 0xf8, 0xca, 0x10, 0x0b, 0x02, 0x29, 0x0f, 0x20, 0xc3,
  0xca, 0x34, 0x01, 0x0b, 0xe5, 0xbc, 0xd1, 0xee, 0xc5, 0x0a, 0x15, 0xe3,
  0x13, 0x00, 0xe7, 0xf3, 0x1d, 0x2a, 0xa4, 0x06, 0x1f, 0x20, 0x24, 0x20,
  0xc8, 0x1b, 0x38, 0x1b, 0xc5, 0xe4, 0x08, 0x11, 0x2e, 0x28, 0xc2, 0xfd,
  0xd1, 0xf3, 0x04, 0xf3, 0x10, 0xb8, 0xd8, 0x01, 0x0c, 0x7f, 0xea, 0x10,
  0xa6, 0xf6, 0x37, 0x1b, 0xf5, 0xbf, 0x78, 0xbb, 0xca, 0xbf, 0xec, 0x4b,
  0xe5, 0x16, 0xd0, 0xe6, 0xc9, 0x01, 0x69, 0x37, 0x12, 0xc4, 0x39, 0x9f,
  0xdd, 0xb7, 0x00, 0xf2, 0x05, 0x02, 0xdb, 0xc8, 0x12, 0x1e, 0x51, 0x1a,
  0x00, 0x0d, 0x31, 0xdc, 0xfb, 0xb7, 0xfc, 0x29, 0x30, 0x13, 0xda, 0xb7,
  0x20, 0xf7, 0xf2, 0x31, 0x36, 0x22, 0xee, 0xc5, 0xa3, 0x27, 0xee, 0xc7,
  0xd3, 0x48, 0xfa, 0xf1, 0xc9, 0x20, 0x21, 0x3c, 0x45, 0xe4, 0xd9, 0xea,
  0xc2, 0x86, 0x27, 0x44, 0x50, 0x3c, 0x32, 0xd4, 0xeb, 0x4d, 0x6d, 0xfa,
  0xfc, 0x26, 0x15, 0xed, 0xec, 0xb0, 0xfe, 0x0b, 0x0b, 0x25, 0x2b, 0x12,
  0xd5, 0x47, 0x03, 0x40, 0xe0, 0xf9, 0xef, 0xfb, 0xa1, 0x0a, 0xde, 0x0e,
  0xc8, 0x43, 0x3e, 0xc5, 0xfd, 0x2d, 0x28, 0xcf, 0xef, 0x07, 0x19, 0xfc,
  0xa1, 0xb1, 0xfc, 0x4b, 0xc7, 0xdf, 0xf3, 0x0c, 0xda, 0xfc, 0x65, 0xc6,
  0xc6, 0xe0, 0x06, 0x3f, 0x9f, 0x15, 0x1b, 0xa5, 0xa5, 0xe7, 0xa7, 0x1b,
  0x1f, 0xdc, 0x32, 0x08, 0xd6, 0x2d, 0xf5, 0xf7, 0x81, 0xbf, 0xea, 0xb6,
  0xb7, 0x00, 0x9b, 0xf1, 0x0d, 0xe6, 0x5b, 0x30, 0x04, 0xbb, 0xfb, 0xc4,
  0xde, 0xee, 0x15, 0xb7, 0xa9, 0x37, 0x10, 0xfb, 0x48, 0xe1, 0x4f, 0xfa,
  0x17, 0xf6, 0xc7, 0xc3, 0xcc, 0x5c, 0x63, 0xbd, 0x28, 0xda, 0xf3, 0xe8,
  0xd6, 0x35, 0x3e, 0x16, 0x0e, 0x14, 0x47, 0x38, 0xfb, 0x17, 0xd8, 0x05,
  0x2e, 0x2f, 0xf6, 0xdc, 0xd6, 0x1c, 0x14, 0xc1, 0xc4, 0xf4, 0xe2, 0x50,
  0x7f, 0x41, 0xca, 0x02, 0x56, 0x3a, 0xd4, 0x0d, 0xe1, 0x1f, 0x0e, 0xd0,
  0xe9, 0x03, 0xf1, 0x25, 0xeb, 0x12, 0x3b, 0x28, 0xfd, 0xf5, 0x12, 0xf7,
  0x24, 0xaf, 0x18, 0xc9, 0xd8, 0x1a, 0x19, 0x42, 0x16, 0xdc, 0x25, 0xd6,
  0x17, 0xc0, 0x2d, 0xc7, 0xfd, 0xdf, 0x38, 0x0d, 0x08, 0xe9, 0xe6, 0xf4,
  0x6e, 0xff, 0xf0, 0xc0, 0x62, 0x21, 0xf7, 0x05, 0x26, 0x5b, 0x02, 0xd4,
  0x35, 0xf3, 0x01, 0x1f, 0x4a, 0x32, 0x41, 0xdb, 0x2e, 0xdf, 0xf2, 0x39,
  0xe5, 0xf5, 0xbd, 0xed, 0x14, 0xf1, 0x05, 0x26, 0xca, 0x3c, 0x30, 0x0f,
  0xf8, 0x0e, 0x35, 0xcf, 0x14, 0x12, 0xfa, 0xe2, 0xd6, 0xd7, 0x05, 0x42,
  0x13, 0x15, 0x0d, 0x1c, 0x3c, 0x19, 0xf4, 0xf0, 0xfd, 0xde, 0x5e, 0xeb,
  0x21, 0xf8, 0x2f, 0x46, 0x30, 0x3a, 0x33, 0x18, 0x61, 0x44, 0xbc, 0x39,
  0x13, 0x3d, 0x4a, 0x3b, 0xde, 0xfc, 0x04, 0x34, 0x38, 0x30, 0xf9, 0x3a,
  0xd1, 0x38, 0x57, 0x09, 0x59, 0x30, 0xd9, 0x0f, 0x25, 0xdc, 0xd7, 0xee,
  0xb2, 0xf6, 0x18, 0xce, 0x14, 0x5f, 0xf6, 0xe6, 0xc6, 0x97, 0x2e, 0xf1,
  0xec, 0x26, 0x43, 0x48, 0xa5, 0x04, 0x07, 0xa3, 0x64, 0xf9, 0xd8, 0xb0,
  0xee, 0xef, 0xf9, 0x2a, 0x35, 0x44, 0xc4, 0xd2, 0x64, 0xce, 0xa0, 0x28,
  0x95, 0xd7, 0x19, 0xd6, 0x59, 0x05, 0xdd, 0xff, 0x0d, 0x04, 0xc1, 0xdb,
  0xb4, 0x40, 0xf9, 0x1e, 0xb1, 0x81, 0x1f, 0xb6, 0x24, 0xf5, 0x3e, 0x06,
  0xd1, 0x03, 0x25, 0x39, 0x89, 0xb4, 0x39, 0xf5, 0xee, 0xb8, 0xe0, 0xc3,
  0x95, 0xc8, 0xf3, 0x0e, 0xf3, 0xbf, 0x31, 0x4b, 0x2a, 0xae, 0x9a, 0x0e,
  0xdf, 0xe5, 0xea, 0xf2, 0x4a, 0xf0, 0x90, 0xe0, 0xe1, 0x4d, 0x17, 0x98,
  0x47, 0x19, 0xf3, 0x3a, 0xce, 0xf0, 0xec, 0x10, 0x08, 0x36, 0x8d, 0x55,
  0xfb, 0x28, 0xd0, 0xfa, 0xf2, 0xf6, 0xa6, 0x09, 0xc2, 0x45, 0x09, 0xdc,
  0xfe, 0x07, 0x56, 0x24, 0x33, 0xfe, 0xf7, 0xb1, 0x24, 0xe4, 0xe8, 0x43,
  0x01, 0x03, 0x2b, 0x13, 0xd8, 0x24, 0x2a, 0xe4, 0x31, 0xb6, 0x24, 0xd3,
  0x35, 0xf4, 0xfd, 0x06, 0x17, 0xa0, 0x1f, 0x1c, 0xf4, 0xde, 0xfd, 0xe9,
  0xc8, 0xfe, 0x12, 0x3e, 0x3c, 0xf3, 0xf4, 0xfe, 0x06, 0x4e, 0xf1, 0x11,
  0xe4, 0x12, 0x65, 0x19, 0x33, 0x07, 0xfd, 0xb9, 0x09, 0xee, 0x10, 0x2b,
  0x09, 0xef, 0xee, 0xee, 0x17, 0xe7, 0x49, 0x1a, 0x13, 0xc1, 0x2a, 0x00,
  0x07, 0x34, 0x31, 0x1b, 0x1c, 0xfc, 0xf0, 0x1c, 0xf7, 0x0a, 0xda, 0x07,
  0x2f, 0x11, 0xf9, 0x36, 0xf6, 0x1c, 0xf8, 0x02, 0xd0, 0x05, 0x2c, 0xc7,
  0x33, 0xbf, 0x7f, 0xe3, 0xee, 0xf3, 0xf6, 0xd0, 0x09, 0x09, 0x18, 0x02,
  0x01, 0xeb, 0xf6, 0xd7, 0xee, 0xa2, 0x50, 0x04, 0xe8, 0xf9, 0xf1, 0xed,
  0xf2, 0x2d, 0x3e, 0xcb, 0x1e, 0xe7, 0xeb, 0x01, 0xf1, 0xcf, 0x17, 0xde,
  0x17, 0x03, 0xd4, 0xf8, 0xfe, 0xf4, 0x62, 0xf4, 0xff, 0xdc, 0xcb, 0xda,
  0x28, 0x18, 0xc1, 0x14, 0xef, 0x26, 0xea, 0x30, 0x16, 0x23, 0xcd, 0x03,
  0x11, 0xa2, 0x04, 0x2f, 0x20, 0x21, 0x81, 0x2f, 0xe9, 0x15, 0xbe, 0xda,
  0x41, 0x2b, 0x14, 0x0b, 0x11, 0xfd, 0x0b, 0x09, 0xe0, 0xe5, 0xd5, 0x09,
  0x31, 0xec, 0x1f, 0x30, 0x07, 0xbe, 0xb4, 0xef, 0x0f, 0xc7, 0xf7, 0xd3,
  0xea, 0x06, 0xb7, 0xfa, 0x07, 0xe0, 0xce, 0xe7, 0x0d, 0xda, 0xcd, 0xdd,
  0x11, 0xdf, 0x23, 0x08, 0x0f, 0xf1, 0xd6, 0x11, 0xd6, 0xff, 0x10, 0x0b,
  0x12, 0x43, 0xc7, 0x3a, 0x44, 0xc4, 0x19, 0xf3, 0x01, 0x16, 0xd6, 0xf1,
  0x23, 0x0f, 0x2d, 0x37, 0x0c, 0xd5, 0xdf, 0xdf, 0x4a, 0xdd, 0xf7, 0xfd,
  0x14, 0x0c, 0xe5, 0xc6, 0xdc, 0xc6, 0x16, 0xb6, 0x17, 0x05, 0xde, 0xca,
  0x5d, 0xf2, 0x47, 0x0d, 0x32, 0xef, 0xf2, 0x0b, 0xf6, 0xe9, 0x03, 0xff,
  0x0a, 0x31, 0x3d, 0xe3, 0x30, 0xe7, 0x32, 0x01, 0x21, 0x45, 0xf5, 0x23,
  0xe2, 0x10, 0x0d, 0xfc, 0xf3, 0xeb, 0xdb, 0x0e, 0x42, 0xf3, 0x0b, 0x38,
  0xdd, 0x01, 0xce, 0xe8, 0x4d, 0x18, 0x15, 0x10, 0x49, 0x1d, 0x99, 0x34,
  0x4e, 0xfa, 0x0f, 0x20, 0x03, 0x1d, 0xcf, 0xf4, 0x19, 0x0c, 0xea, 0x02,
  0x3a, 0x3b, 0x92, 0x22, 0xff, 0xbf, 0x22, 0x33, 0x1b, 0x50, 0xc4, 0x13,
  0x0e, 0x1d, 0x1f, 0x26, 0x06, 0x45, 0xcc, 0xed, 0x41, 0xca, 0x1a, 0x25,
  0xd1, 0xf4, 0x07, 0x2e, 0xe7, 0xef, 0xca, 0x24, 0x1c, 0x04, 0xcc, 0x02,
  0x1b, 0xd2, 0x11, 0x2f, 0xae, 0xf9, 0xcb, 0x0a, 0xdf, 0xc8, 0xe4, 0x05,
  0x47, 0xbc, 0xf3, 0x1e, 0x67, 0xf1, 0xec, 0x44, 0x0a, 0x32, 0xa7, 0x3b,
  0x02, 0xdb, 0x06, 0xf1, 0x13, 0x43, 0xb6, 0x32, 0x3f, 0x1a, 0xc7, 0xe9,
  0xac, 0x54, 0x0c, 0xef, 0x32, 0xb1, 0x4f, 0x0f, 0x01, 0xf7, 0xe8, 0x20,
  0xe9, 0x45, 0xe7, 0xc3, 0xa5, 0xf2, 0x3c, 0x04, 0xfa, 0xef, 0x25, 0xc2,
  0x60, 0xed, 0xf0, 0x36, 0x7f, 0x0c, 0x04, 0xcc, 0x14, 0x56, 0x40, 0xf9,
  0x35, 0xaa, 0xf0, 0xc4, 0x05, 0xee, 0xf7, 0x41, 0xfb, 0x90, 0xec, 0x1f,
  0xd7, 0xed, 0xc5, 0xae, 0xf2, 0xe0, 0x1e, 0x6a, 0x71, 0x01, 0x32, 0xbc,
  0x96, 0xf8, 0x17, 0xd8, 0x63, 0x11, 0xd1, 0xa8, 0x96, 0x05, 0x3a, 0x9b,
  0xa0, 0x2a, 0x49, 0xd5, 0x82, 0xcf, 0x87, 0xfa, 0xc6, 0x9b, 0xd8, 0xbe,
  0xa3, 0xee, 0x01, 0x1c, 0x05, 0xa5, 0x46, 0x81, 0x1a, 0xf5, 0xe9, 0xf1,
  0xb0, 0x43, 0x1b, 0xb4, 0x3a, 0x19, 0xb5, 0x2f, 0x27, 0xa9, 0x55, 0xfc,
  0x44, 0x9f, 0x0e, 0x1e, 0xf9, 0xee, 0xf8, 0x2b, 0xa8, 0xe4, 0x28, 0xc6,
  0xea, 0x57, 0xef, 0x26, 0xe2, 0xcc, 0x97, 0x2d, 0xca, 0xe4, 0x91, 0x07,
  0x69, 0x54, 0xee, 0x97, 0xc0, 0xb4, 0x49, 0x43, 0x1c, 0x20, 0x97, 0xde,
  0x12, 0xb3, 0x2f, 0xfd, 0xcc, 0x73, 0xde, 0x69, 0x7c, 0xb8, 0x40, 0xd8,
  0x2e, 0x43, 0x39, 0x1b, 0xf0, 0x1c, 0x89, 0x0e, 0x31, 0xd3, 0xd5, 0x0a,
  0x55, 0x18, 0x20, 0x07, 0x07, 0x68, 0x3f, 0xf8, 0xc6, 0xde, 0xf6, 0xd7,
  0x2c, 0x0d, 0x4d, 0xb3, 0x1e, 0xbb, 0xdd, 0x77, 0xe6, 0xf7, 0x48, 0x36,
  0xca, 0x35, 0x31, 0x1e, 0x35, 0xa9, 0x11, 0xd6, 0x08, 0xd5, 0x32, 0x31,
  0x53, 0xbe, 0x5e, 0x3b, 0xea, 0x01, 0xfb, 0x35, 0xa8, 0x08, 0xcf, 0xe6,
  0x44, 0x05, 0x23, 0xe5, 0x1e, 0xc8, 0x3b, 0x0c, 0xd6, 0x0e, 0xd2, 0xbc,
  0x1a, 0x12, 0xd9, 0x57, 0x2d, 0xb2, 0xe0, 0x0f, 0x0c, 0x0f, 0xdb, 0x0f,
  0xf1, 0x28, 0x15, 0xee, 0xf3, 0x09, 0xf9, 0x03, 0x26, 0x05, 0x3e, 0x2a,
  0x12, 0xb9, 0x33, 0xc9, 0xe6, 0x1e, 0xb5, 0x07, 0x09, 0xf8, 0x40, 0x1f,
  0x64, 0x15, 0xe6, 0x25, 0x10, 0xa3, 0xfb, 0x31, 0x20, 0x2d, 0xfa, 0x1a,
  0x33, 0xca, 0xfb, 0x01, 0xef, 0x22, 0xc6, 0xfa, 0x05, 0xf0, 0x2d, 0x29,
  0x26, 0x0a, 0xe0, 0xe5, 0xf6, 0xce, 0x03, 0xc3, 0x68, 0x25, 0x11, 0x20,
  0x72, 0x1b, 0xee, 0xbf, 0x11, 0x1a, 0xbd, 0xc1, 0x0b, 0xc4, 0x49, 0x3c,
  0x13, 0x44, 0x30, 0x05, 0x1f, 0xa0, 0x15, 0xf8, 0x00, 0x00, 0x1e, 0xcb,
  0x22, 0xe6, 0x19, 0x7f, 0x32, 0x02, 0x31, 0xd7, 0xb7, 0xd6, 0xff, 0x04,
  0x1f, 0x02, 0xc6, 0xc0, 0xed, 0x10, 0x25, 0x27, 0xfa, 0xe5, 0x13, 0xce,
  0xc7, 0x0b, 0x16, 0xcc, 0xfb, 0x93, 0xd1, 0xce, 0x22, 0x22, 0xd4, 0x00,
  0x0f, 0xbc, 0xed, 0xf3, 0xee, 0x40, 0x4f, 0xd5, 0x20, 0xc3, 0x1b, 0x17,
  0xd3, 0xdd, 0xd2, 0xec, 0x2e, 0x64, 0x52, 0x1b, 0x07, 0xb0, 0xef, 0x20,
  0x51, 0xfa, 0xf1, 0x21, 0xfd, 0xf0, 0xf7, 0xe1, 0x34, 0xfe, 0xfe, 0x2d,
  0xf9, 0x11, 0x30, 0xea, 0xb4, 0x00, 0x81, 0xd5, 0x09, 0x2e, 0x2e, 0x17,
  0xe5, 0x0f, 0xe0, 0x20, 0x91, 0x9f, 0xb5, 0x47, 0x25, 0x05, 0xe0, 0xdd,
  0xd7, 0x0c, 0xea, 0x06, 0x2b, 0x62, 0x01, 0xf9, 0x21, 0xae, 0x17, 0xfd,
  0x04, 0x06, 0xd2, 0x08, 0xe3, 0xe4, 0x2a, 0x3c, 0x57, 0x6e, 0xf4, 0x2b,
  0x2f, 0xbd, 0x36, 0xd3, 0xc4, 0x1a, 0x1e, 0x34, 0xcc, 0xda, 0x1e, 0x28,
  0xb8, 0xd6, 0xf6, 0xcb, 0xd5, 0xaf, 0xd1, 0x3f, 0x21, 0xcd, 0xc1, 0x2c,
  0xf7, 0x34, 0xf1, 0xfd, 0x01, 0x0d, 0xbc, 0xf6, 0x23, 0x52, 0x18, 0xbe,
  0xed, 0xff, 0x67, 0xcf, 0xef, 0x20, 0x44, 0xc3, 0x8a, 0x05, 0x13, 0x00,
  0xfb, 0x54, 0x0e, 0xe5, 0xe4, 0x26, 0x47, 0x2f, 0xf3, 0xd5, 0x1a, 0x81,
  0x16, 0xf5, 0x2f, 0x48, 0x13, 0x58, 0xfd, 0xca, 0xa3, 0x38, 0x4d, 0x3c,
  0x01, 0xbc, 0x2d, 0xf0, 0xed, 0x8a, 0xf3, 0x5d, 0x21, 0x3b, 0x24, 0x00,
  0x1d, 0xe6, 0x3b, 0x34, 0x21, 0x18, 0x27, 0xf0, 0x06, 0x26, 0x15, 0xfb,
  0x09, 0x1f, 0x10, 0x0d, 0xce, 0xde, 0x49, 0x11, 0x1c, 0x23, 0xd4, 0x0a,
  0x01, 0xe2, 0xe2, 0x02, 0xe8, 0x2c, 0x2d, 0xbb, 0x27, 0xf6, 0x60, 0xdf,
  0xd0, 0xb1, 0xf3, 0xfc, 0xb2, 0x0f, 0x27, 0xd0, 0xe7, 0xc7, 0xb8, 0x01,
  0xd4, 0xa0, 0x0d, 0x15, 0xfa, 0x25, 0xf9, 0xdc, 0xbb, 0xb9, 0x22, 0xc1,
  0xda, 0xe6, 0x04, 0xcb, 0xda, 0xe3, 0xef, 0xe3, 0x0f, 0x1c, 0xd6, 0x2c,
  0xc9, 0x1e, 0x01, 0xb9, 0xf9, 0xa3, 0xeb, 0xfc, 0x3f, 0xb4, 0xf4, 0xf5,
  0x04, 0x2b, 0xab, 0xff, 0xe0, 0x4e, 0x11, 0xae, 0xbe, 0xb5, 0xef, 0xc2,
  0xf7, 0xf3, 0xd0, 0xed, 0xb5, 0xdd, 0xfb, 0xcd, 0xdf, 0xd3, 0x1a, 0xba,
  0xe3, 0xbb, 0xcd, 0x07, 0xe1, 0x16, 0xab, 0x29, 0x06, 0xe2, 0x4f, 0xbb,
  0xee, 0xd2, 0x0a, 0xfc, 0x02, 0x62, 0xe8, 0x08, 0xc1, 0x5b, 0xc1, 0xe5,
  0x1f, 0xf6, 0xfe, 0x12, 0x54, 0xcf, 0x81, 0x4f, 0x1e, 0x1c, 0xda, 0xd0,
  0x9f, 0xdf, 0xd9, 0x00, 0x08, 0xcf, 0x24, 0x35, 0xc9, 0xd6, 0xe1, 0xea,
  0xd6, 0x14, 0x11, 0xd8, 0xd8, 0x0b, 0x06, 0x30, 0x43, 0x33, 0x03, 0xfd,
  0x48, 0x15, 0xeb, 0x3c, 0x60, 0xcd, 0xfb, 0x30, 0xa9, 0xc3, 0x61, 0x18,
  0x20, 0xd0, 0x30, 0x4d, 0xbe, 0xf8, 0x00, 0x09, 0xf3, 0xd1, 0x3b, 0x05,
  0xf2, 0xf9, 0x49, 0xc7, 0xa4, 0xdf, 0xc9, 0x05, 0xcf, 0x32, 0x05, 0xc7,
  0x05, 0xcf, 0x30, 0xda, 0x0b, 0xb7, 0xf7, 0x1d, 0xfb, 0x28, 0xf5, 0xe6,
  0x00, 0x2f, 0x1c, 0xc0, 0x49, 0xf3, 0x21, 0x11, 0xef, 0x00, 0x22, 0xea,
  0x1c, 0xe8, 0xf3, 0x4d, 0x37, 0xfd, 0xdc, 0x55, 0xc4, 0xed, 0xd2, 0x20,
  0x18, 0xf4, 0x81, 0xd7, 0xe8, 0x3c, 0xbf, 0xc4, 0x1e, 0xf8, 0xe6, 0x22,
  0x1e, 0xf6, 0x47, 0x3e, 0x02, 0x22, 0xdf, 0x3d, 0x37, 0x08, 0xce, 0xe6,
  0x3a, 0xe4, 0xb9, 0x24, 0x5a, 0x09, 0xf1, 0x42, 0xbb, 0xd2, 0x9c, 0x3c,
  0xf3, 0xc3, 0x20, 0x45, 0xe5, 0xf7, 0xb8, 0xe7, 0x29, 0xb7, 0xff, 0x19,
  0x34, 0x27, 0xef, 0xdb, 0xc9, 0x15, 0xc5, 0xeb, 0x40, 0x14, 0x28, 0xd3,
  0x4f, 0xb7, 0x5a, 0xd9, 0xe7, 0xfe, 0x01, 0x0f, 0x35, 0x11, 0xdb, 0xf4,
  0x5f, 0x03, 0x0f, 0xe1, 0x51, 0xb8, 0x50, 0xf5, 0x27, 0xdf, 0xae, 0xca,
  0x07, 0x10, 0xd4, 0x5c, 0x21, 0xf9, 0x32, 0xf0, 0x29, 0xfe, 0xde, 0x19,
  0xf8, 0xd9, 0xcf, 0xdd, 0xd1, 0x1f, 0xde, 0xf8, 0xfc, 0x57, 0xd3, 0x18,
  0x2f, 0x24, 0x1a, 0x0c, 0xfc, 0x35, 0xe1, 0x32, 0xd5, 0xcb, 0xce, 0xee,
  0xda, 0x1e, 0x31, 0x0a, 0x30, 0xcb, 0xf9, 0xfd, 0x1d, 0x08, 0x0e, 0xf3,
  0x25, 0x0a, 0x2d, 0x3d, 0xea, 0xc4, 0xf9, 0x33, 0x33, 0x2d, 0x2c, 0xbb,
  0xc2, 0x0d, 0xff, 0xd9, 0x38, 0xd5, 0x0b, 0x9b, 0x1d, 0xac, 0xce, 0x35,
  0x1a, 0x03, 0x07, 0xe1, 0x05, 0x39, 0x14, 0x30, 0x00, 0xf1, 0x0e, 0x15,
  0x2a, 0x2a, 0xca, 0x49, 0x20, 0xee, 0x30, 0x09, 0xf9, 0xcd, 0x2d, 0x38,
  0x20, 0x1c, 0xf2, 0x06, 0xf5, 0xef, 0xe1, 0x0c, 0xfe, 0x63, 0xd9, 0xc2,
  0xe5, 0x14, 0x79, 0xe3, 0x1c, 0x07, 0xc4, 0xe7, 0x87, 0x06, 0x2e, 0xe8,
  0xee, 0x14, 0xe7, 0x0d, 0x29, 0xba, 0x24, 0xe2, 0xd0, 0xb8, 0xf7, 0xcf,
  0xc2, 0xfd, 0x3d, 0x8c, 0x00, 0xbc, 0xc4, 0xf5, 0xde, 0xff, 0xfb, 0x0e,
  0xe3, 0x24, 0xf4, 0x0a, 0x15, 0xec, 0x01, 0xb4, 0xeb, 0x13, 0xd9, 0xde,
  0x53, 0x4c, 0x3d, 0xe5, 0x05, 0xd9, 0x1b, 0xf3, 0xdb, 0x46, 0x7f, 0xf7,
  0xed, 0xfb, 0x38, 0x16, 0xe8, 0x2f, 0xf3, 0x06, 0x01, 0xec, 0xf4, 0xf3,
  0xf1, 0x40, 0x52, 0x12, 0xc7, 0x47, 0x0d, 0xf8, 0xaf, 0xee, 0xed, 0x20,
  0xfc, 0xd2, 0xe3, 0xc4, 0xfb, 0xf9, 0xce, 0xf7, 0x26, 0x89, 0x0f, 0xe9,
  0xff, 0x19, 0xeb, 0xcd, 0xfa, 0xd4, 0x31, 0xf5, 0xfc, 0x15, 0xda, 0x29,
  0xe2, 0xed, 0xec, 0xd0, 0x0d, 0x14, 0xf1, 0x22, 0xfa, 0xe9, 0xfd, 0x02,
  0xe9, 0xee, 0xfd, 0x25, 0xe0, 0xab, 0xfb, 0x44, 0x1d, 0xe0, 0x81, 0x08,
  0xf1, 0xfd, 0xc5, 0x02, 0xea, 0xfc, 0xf5, 0x15, 0xfc, 0x10, 0x20, 0x23,
  0x11, 0xf0, 0xdd, 0x14, 0xdb, 0x0b, 0x23, 0xde, 0x4d, 0xf7, 0xaf, 0xf3,
  0xd7, 0xd4, 0xf9, 0xef, 0xf5, 0x1e, 0xe3, 0x2d, 0xf8, 0xec, 0x06, 0x12,
  0xe0, 0xef, 0x97, 0x0b, 0xcf, 0xcf, 0xf2, 0x3f, 0x2d, 0xfc, 0x8e, 0xff,
  0xd6, 0xe6, 0x07, 0xe8, 0x41, 0x2b, 0xa6, 0x28, 0x1c, 0xf0, 0x27, 0x14,
  0xd7, 0x38, 0x33, 0x23, 0x31, 0x0d, 0x15, 0x12, 0x23, 0x1e, 0x12, 0xee,
  0x14, 0xd5, 0x43, 0x1f, 0x1a, 0xe8, 0x37, 0xe5, 0x04, 0x09, 0x20, 0x2c,
  0xbb, 0x27, 0x2f, 0xe5, 0xf7, 0xb9, 0xed, 0xfa, 0xf1, 0x24, 0xce, 0x1a,
  0xff, 0x0e, 0xb0, 0xf7, 0x59, 0x30, 0xdb, 0x0d, 0xe7, 0x7f, 0xb1, 0x25,
  0x05, 0x1b, 0x20, 0xf7, 0x10, 0xf7, 0xed, 0xec, 0x19, 0x0c, 0x34, 0x23,
  0xe5, 0xb5, 0x2b, 0xa8, 0xfc, 0xd0, 0x4a, 0x36, 0xc1, 0x31, 0x0d, 0xdb,
  0x22, 0x23, 0xf5, 0xbf, 0x19, 0x5c, 0xe9, 0xb3, 0xf7, 0xe8, 0xfa, 0xee,
  0x2e, 0xfc, 0xd7, 0x09, 0x3c, 0x65, 0xf9, 0x31, 0xe9, 0xb7, 0xca, 0xc2,
  0x45, 0x33, 0x04, 0x18, 0xab, 0xc3, 0x13, 0xe5, 0xee, 0xfb, 0xe8, 0x1a,
  0xe4, 0xeb, 0xdf, 0xd0, 0x00, 0xe3, 0x20, 0xe3, 0x17, 0x07, 0xe1, 0xd7,
  0x2f, 0xf8, 0xee, 0x1e, 0xd8, 0x3d, 0x1c, 0x01, 0x18, 0xf8, 0xe6, 0x3c,
  0xfb, 0xb3, 0xf2, 0x07, 0xcc, 0xc5, 0x9f, 0x10, 0x37, 0xc5, 0xb1, 0xe0,
  0xf1, 0xe6, 0xdf, 0xb4, 0xdc, 0xe0, 0x0f, 0xcf, 0xf5, 0xab, 0x24, 0x14,
  0xcf, 0x9e, 0xcc, 0x13, 0xce, 0xdf, 0xaf, 0xc3, 0xc3, 0xcc, 0x15, 0xee,
  0xa6, 0xcb, 0xa5, 0xd4, 0xea, 0xbd, 0xb5, 0xd7, 0xcc, 0xec, 0x28, 0xcc,
  0x18, 0xfd, 0xf6, 0x13, 0xd4, 0x1c, 0xd7, 0x08, 0xbc, 0x4c, 0x0a, 0x19,
  0xa7, 0x3e, 0x35, 0x10, 0x0f, 0x13, 0xfb, 0xce, 0xd2, 0x89, 0xb3, 0x25,
  0xf5, 0x3d, 0x48, 0xe4, 0xbd, 0x0a, 0x7d, 0x25, 0x22, 0xe0, 0x26, 0xf2,
  0xce, 0x9a, 0x18, 0x22, 0x00, 0x26, 0x1b, 0xd2, 0xe7, 0x11, 0x59, 0x06,
  0x10, 0xd8, 0xe3, 0xce, 0xd9, 0x06, 0xfa, 0xf7, 0x08, 0x31, 0x36, 0xec,
  0xde, 0x06, 0x7f, 0xd3, 0xf0, 0xc4, 0xc6, 0xe1, 0xdf, 0xf0, 0x3b, 0xf1,
  0x16, 0x1b, 0xf2, 0xfb, 0x16, 0xca, 0x77, 0xed, 0xc0, 0xda, 0xe3, 0x18,
  0xe7, 0x1d, 0x52, 0xdc, 0x29, 0xf8, 0x03, 0xd2, 0x2b, 0xfa, 0x32, 0x0c,
  0xd4, 0xbf, 0xc4, 0x10, 0x2e, 0x40, 0x42, 0x9e, 0xd4, 0xd1, 0x18, 0xc2,
  0xe9, 0xfd, 0x30, 0x0c, 0xf0, 0x0b, 0xfc, 0xf3, 0xbc, 0xfc, 0x50, 0xc7,
  0x01, 0xc5, 0x27, 0xda, 0x2e, 0xf6, 0x00, 0x0a, 0xde, 0xf6, 0xd4, 0x44,
  0xe7, 0x31, 0x0c, 0x08, 0xd3, 0xe5, 0x03, 0x26, 0x11, 0xe6, 0xbc, 0x18,
  0x2c, 0xd6, 0x15, 0x2f, 0x1c, 0xe4, 0x06, 0x12, 0x25, 0x4e, 0x72, 0x03,
  0xad, 0x26, 0x62, 0x53, 0x30, 0xca, 0x19, 0x0d, 0xec, 0xc3, 0xdc, 0xea,
  0x60, 0x64, 0x5f, 0xcb, 0x4b, 0xfb, 0x13, 0x04, 0x3a, 0x0b, 0xd1, 0xcb,
  0x22, 0xe8, 0x0a, 0xc5, 0x4d, 0x22, 0x49, 0xf4, 0x81, 0xe3, 0x1b, 0x3c,
  0xde, 0xf7, 0x01, 0xfc, 0xdd, 0xca, 0x8c, 0x35, 0x66, 0x08, 0x33, 0x30,
  0x95, 0x1b, 0x08, 0x28, 0x05, 0x9f, 0xe6, 0x07, 0x96, 0xbf, 0xe6, 0x51,
  0x30, 0xfd, 0x0d, 0xdd, 0x15, 0x4b, 0xd3, 0xad, 0x0e, 0xfc, 0xdf, 0xe5,
  0xd0, 0xec, 0xe2, 0xf6, 0x2d, 0x30, 0xcd, 0xc0, 0xb6, 0xbd, 0x59, 0xe0,
  0x83, 0xe7, 0xe4, 0x29, 0xda, 0xc8, 0xaf, 0x0c, 0xdf, 0x14, 0x0a, 0x00,
  0xdc, 0xd9, 0xd6, 0x13, 0x19, 0x4d, 0xe3, 0x78, 0xfb, 0xd5, 0x48, 0xdb,
  0x00, 0x3c, 0x1a, 0xda, 0xd3, 0x1b, 0xb6, 0xd6, 0xff, 0x85, 0x24, 0x5f,
  0xe3, 0xb2, 0xe5, 0xf7, 0x55, 0xc4, 0xf4, 0xb7, 0xf8, 0x28, 0x0f, 0x42,
  0xb3, 0xea, 0xe1, 0x54, 0x8b, 0x3a, 0x56, 0x2d, 0xde, 0x45, 0xde, 0x22,
  0xda, 0x42, 0x7a, 0x08, 0x4e, 0xfd, 0x60, 0xc4, 0xab, 0x01, 0xd1, 0x17,
  0xdf, 0x42, 0x22, 0xd5, 0xcf, 0x0a, 0x63, 0x38, 0x37, 0xea, 0x40, 0xc3,
  0xc1, 0xe0, 0xf8, 0x4f, 0xf1, 0x57, 0x49, 0x0d, 0xbd, 0x47, 0x66, 0xf9,
  0x31, 0xdd, 0x18, 0xd8, 0x2f, 0xe4, 0xb1, 0x5d, 0x00, 0x4c, 0x38, 0xda,
  0x0a, 0x35, 0x5d, 0xf6, 0x03, 0x21, 0x0c, 0xcd, 0xe8, 0x20, 0xe1, 0xfd,
  0x0e, 0x2b, 0x3f, 0xb9, 0xc2, 0x16, 0x5f, 0x01, 0x00, 0xcf, 0xd9, 0x99,
  0xf6, 0xdc, 0xee, 0x0a, 0x0a, 0x63, 0x13, 0x0a, 0xda, 0xe9, 0x78, 0xd4,
  0xe1, 0xd0, 0x18, 0x13, 0x1f, 0x11, 0xe5, 0x04, 0xf5, 0x1f, 0xd0, 0xbb,
  0xed, 0xeb, 0x7f, 0x04, 0xb0, 0x32, 0xd4, 0xde, 0x8c, 0x38, 0x5c, 0xd9,
  0xea, 0x0d, 0xf0, 0xbc, 0x31, 0xa7, 0x34, 0xfe, 0xcd, 0x28, 0xba, 0xe0,
  0xd4, 0x16, 0x30, 0xc4, 0xe1, 0xb2, 0x39, 0xca, 0x2c, 0xf9, 0x1f, 0x0d,
  0xbe, 0xf7, 0xc6, 0xf2, 0x26, 0x51, 0x5d, 0xa4, 0xdf, 0xf0, 0x01, 0xf0,
  0x01, 0x28, 0xcd, 0x29, 0x28, 0xff, 0x20, 0x11, 0x74, 0x2f, 0xe9, 0x1b,
  0x64, 0xc6, 0xfc, 0x39, 0x17, 0x24, 0xca, 0xf3, 0xd2, 0xef, 0x12, 0x30,
  0xf2, 0x07, 0xff, 0xf2, 0xd6, 0x81, 0x17, 0x1a, 0xe8, 0xe0, 0xb5, 0xb8,
  0x1c, 0xf2, 0xd6, 0x3c, 0x53, 0xce, 0xc0, 0xc9, 0x1b, 0xbf, 0x3c, 0xea,
  0x2f, 0x1b, 0x19, 0x04, 0x14, 0xf8, 0xfa, 0x33, 0x6b, 0x35, 0x08, 0xec,
  0x62, 0xa4, 0x17, 0xf8, 0xe0, 0x35, 0xf9, 0xd8, 0x05, 0xe5, 0x09, 0x51,
  0xf8, 0x03, 0x06, 0xfb, 0x40, 0xb5, 0x2b, 0xee, 0x01, 0x07, 0xd8, 0xcb,
  0xe0, 0xda, 0x1e, 0x22, 0x49, 0x20, 0xda, 0x06, 0x2e, 0xe8, 0xfd, 0xf3,
  0xf4, 0xdb, 0x20, 0x2c, 0x0e, 0xf1, 0x20, 0x45, 0x69, 0xf9, 0x30, 0x0c,
  0x32, 0xc6, 0xdc, 0xea, 0xfd, 0x21, 0x1f, 0xef, 0x04, 0xe6, 0xf4, 0x5e,
  0x2b, 0xf2, 0xdc, 0x19, 0x16, 0xb5, 0x46, 0xd9, 0x2c, 0xe1, 0xfe, 0xd5,
  0x1d, 0x25, 0x15, 0xee, 0x12, 0x03, 0xed, 0x1c, 0xed, 0x54, 0x23, 0x01,
  0x95, 0xdf, 0x45, 0x1d, 0x2d, 0x04, 0xdd, 0xd6, 0xb3, 0xa3, 0xe7, 0x01,
  0x3d, 0x53, 0xfd, 0x1a, 0xfd, 0x38, 0x55, 0xbb, 0x24, 0xde, 0xc6, 0x08,
  0xe8, 0xd8, 0x16, 0x4c, 0x3a, 0xd7, 0x15, 0x09, 0xfa, 0xc6, 0x7f, 0x09,
  0xbd, 0xd5, 0xae, 0x03, 0xbc, 0x21, 0x4c, 0xc1, 0xad, 0x47, 0xe0, 0xde,
  0xf8, 0xfc, 0x4e, 0xd6, 0x2c, 0x06, 0xea, 0x16, 0xeb, 0xa7, 0x06, 0x17,
  0x44, 0x31, 0x25, 0xea, 0x32, 0xca, 0x56, 0xcb, 0xb9, 0xcb, 0xc1, 0x4f,
  0xfa, 0x38, 0x31, 0xb1, 0xbd, 0xea, 0x23, 0xd4, 0x13, 0xf3, 0x2b, 0x01,
  0xdf, 0xd2, 0xd6, 0x4f, 0xd7, 0x3d, 0x3f, 0xfd, 0xa8, 0x12, 0xef, 0x00,
  0x33, 0x19, 0x51, 0x05, 0xd2, 0xe0, 0xf3, 0xf2, 0x02, 0x29, 0x60, 0x3a,
  0xd7, 0x3a, 0xe5, 0xda, 0x00, 0x02, 0xf8, 0x49, 0x25, 0xd3, 0xde, 0x0c,
  0xfc, 0x4e, 0x13, 0xda, 0xbc, 0x02, 0xe4, 0x00, 0xc4, 0xe1, 0xcd, 0xe6,
  0x1c, 0x27, 0xf3, 0x19, 0x12, 0xd1, 0x0d, 0x3f, 0x23, 0x28, 0x00, 0x01,
  0xf8, 0xfe, 0x10, 0xe9, 0x2f, 0x27, 0x27, 0x2e, 0xc2, 0xec, 0x25, 0x26,
  0x2f, 0x41, 0x21, 0xef, 0x16, 0x2b, 0x7f, 0xf4, 0xe8, 0xe8, 0xc9, 0xdc,
  0xd7, 0x11, 0x33, 0xd6, 0x2c, 0xec, 0x20, 0xe2, 0xf9, 0xde, 0x4a, 0xde,
  0xe9, 0xea, 0x07, 0x5b, 0x04, 0x12, 0x1a, 0x03, 0xf6, 0x24, 0x1a, 0xf5,
  0xf0, 0xcc, 0x25, 0xf1, 0xf1, 0xcf, 0xfc, 0x41, 0xc0, 0x30, 0x0f, 0xd1,
  0xc3, 0xe9, 0x0d, 0x02, 0x2d, 0xf3, 0xf2, 0x04, 0x1b, 0x0a, 0xef, 0xef,
  0xd6, 0x23, 0x45, 0x04, 0xca, 0xc3, 0xe9, 0xd2, 0xed, 0xaf, 0xd0, 0x17,
  0x20, 0x18, 0x03, 0x42, 0xf5, 0xed, 0xfa, 0xd2, 0xf2, 0xe8, 0xeb, 0xea,
  0x0f, 0x0f, 0xeb, 0x1d, 0xd2, 0x20, 0xed, 0x0f, 0x04, 0x38, 0x00, 0xf5,
  0xee, 0xf6, 0x0b, 0x28, 0xeb, 0xe8, 0xb4, 0xda, 0xe5, 0xd6, 0xff, 0xfb,
  0x01, 0x12, 0xb7, 0x15, 0xf5, 0xe4, 0x36, 0xf8, 0x0c, 0xe0, 0xef, 0x00,
  0xf3, 0x23, 0x14, 0x06, 0xda, 0xc8, 0xb3, 0x23, 0x41, 0x4d, 0x2e, 0xb7,
  0xe3, 0x1c, 0x2a, 0xc5, 0xed, 0xb2, 0xe4, 0xbc, 0xc1, 0x0e, 0xf7, 0x0d,
  0x27, 0x0c, 0x50, 0xcb, 0xd9, 0x5b, 0x09, 0xec, 0x37, 0xcb, 0x0f, 0xd8,
  0xfc, 0xca, 0xd7, 0x17, 0x2f, 0xf6, 0xe1, 0x35, 0xfb, 0x76, 0x2e, 0x36,
  0x0d, 0xac, 0x4c, 0x9a, 0x0d, 0xbf, 0xd0, 0x66, 0xd8, 0x6f, 0x4e, 0xed,
  0xde, 0xd0, 0x66, 0xec, 0xe2, 0xeb, 0x33, 0xe9, 0x9e, 0xfe, 0x38, 0x07,
  0xd9, 0x62, 0xfa, 0xcb, 0xfc, 0x27, 0x44, 0x2f, 0xef, 0xf5, 0xd4, 0x05,
  0xdc, 0xe5, 0xe7, 0xd3, 0x05, 0x39, 0xcb, 0xe0, 0x1b, 0x32, 0x7f, 0x26,
  0xdc, 0x11, 0xfd, 0xc5, 0x05, 0x16, 0xcf, 0x27, 0x10, 0x0f, 0xc5, 0xab,
  0x0f, 0xe9, 0x68, 0xd9, 0x41, 0x20, 0xf4, 0xee, 0x98, 0xf1, 0x25, 0x4a,
  0xf5, 0x0a, 0xe2, 0xde, 0x10, 0x0c, 0x47, 0x2d, 0xef, 0x05, 0x3e, 0xb9,
  0xd6, 0x05, 0x68, 0x37, 0xd7, 0x12, 0x16, 0xeb, 0x08, 0x53, 0x07, 0xe4,
  0x1e, 0xe2, 0xcb, 0xf7, 0xb8, 0x6f, 0x27, 0xcd, 0x06, 0xbc, 0xf0, 0xea,
  0xff, 0xde, 0x24, 0x26, 0xeb, 0xc9, 0x2a, 0xf0, 0xcb, 0x37, 0xfc, 0x1d,
  0x36, 0xe8, 0xf1, 0x3b, 0x02, 0xfb, 0x12, 0xde, 0xf9, 0xed, 0xc9, 0xf7,
  0xfc, 0x2f, 0x3f, 0xd8, 0x43, 0xe2, 0x38, 0xe8, 0xd6, 0xf9, 0x25, 0x1a,
  0x2c, 0xd2, 0xf9, 0x5d, 0x33, 0xfb, 0x29, 0xfa, 0x38, 0x33, 0x22, 0x3a,
  0x0e, 0xd5, 0xdc, 0xd5, 0x02, 0xf7, 0x09, 0x0a, 0x3d, 0x1f, 0xda, 0xf6,
  0xe4, 0xd1, 0x52, 0x1b, 0x08, 0xfe, 0xd3, 0x1f, 0xe8, 0x08, 0xd1, 0xe9,
  0x4f, 0xf6, 0x26, 0xf9, 0x11, 0x81, 0x04, 0xe2, 0xde, 0xcc, 0xd5, 0xe8,
  0x1a, 0x15, 0x49, 0x10, 0x39, 0xe1, 0xf0, 0xd9, 0x24, 0xe5, 0xd6, 0x1f,
  0x28, 0x11, 0xfd, 0xcc, 0xb2, 0x30, 0xbf, 0xe0, 0x11, 0xed, 0x24, 0xd7,
  0x36, 0x16, 0x78, 0x34, 0xcf, 0xd6, 0x01, 0x1b, 0xdf, 0xfa, 0xd3, 0x16,
  0x48, 0x18, 0xef, 0x2d, 0x61, 0xd5, 0x51, 0x43, 0xea, 0xef, 0xd3, 0xf9,
  0x0d, 0xd0, 0x03, 0x1d, 0x57, 0x5d, 0x02, 0xf6, 0xf8, 0x12, 0xb6, 0xab,
  0xfc, 0xcd, 0xf8, 0x0c, 0xc8, 0xdb, 0xfe, 0x99, 0xc0, 0xc8, 0x0e, 0x98,
  0xdf, 0xe6, 0xe8, 0xd0, 0xfc, 0xe0, 0xf1, 0xfd, 0x23, 0x00, 0x11, 0xa8,
  0xe6, 0xc9, 0x4a, 0xb5, 0xb9, 0xee, 0xcb, 0xd9, 0x15, 0x5b, 0x1a, 0xc9,
  0x1f, 0xc4, 0x12, 0xb7, 0x23, 0xcb, 0x42, 0xf1, 0xe4, 0x42, 0xe4, 0x10,
  0xf2, 0x39, 0xc4, 0xd4, 0x42, 0x01, 0x55, 0xab, 0xe5, 0x05, 0x17, 0x1b,
  0xc3, 0x1d, 0xf3, 0x05, 0x9e, 0x2a, 0x48, 0x01, 0x2a, 0x11, 0xec, 0x9b,
  0x8e, 0xc4, 0xdc, 0x08, 0xed, 0x7e, 0x2d, 0xec, 0x1f, 0x31, 0x3c, 0xf7,
  0x20, 0x07, 0x0f, 0xd1, 0xc5, 0xdf, 0xdf, 0x42, 0x26, 0x69, 0xe2, 0xec,
  0xc9, 0x19, 0x7f, 0xf5, 0xf1, 0xc5, 0x17, 0xf5, 0xdd, 0xbd, 0x0f, 0x1d,
  0x01, 0x5f, 0xe0, 0xb2, 0xfc, 0x26, 0x57, 0xdd, 0x34, 0xd9, 0x24, 0xf3,
  0xd7, 0xbd, 0x27, 0x46, 0xdc, 0x4b, 0x0c, 0x08, 0x14, 0x0f, 0x50, 0xd5,
  0x27, 0xbc, 0x04, 0xd7, 0xb4, 0x26, 0x36, 0x32, 0xf3, 0x56, 0xd7, 0x07,
  0x15, 0x31, 0x21, 0xda, 0x1c, 0xf0, 0x08, 0x90, 0xec, 0xdf, 0x46, 0xfb,
  0xd0, 0x75, 0x2e, 0xd3, 0x18, 0x2b, 0x4a, 0xde, 0x37, 0xd0, 0xfc, 0x86,
  0xa3, 0x23, 0x2a, 0x35, 0x10, 0x65, 0x2c, 0x03, 0xbb, 0x48, 0x51, 0x3d,
  0x55, 0xcb, 0x32, 0xf3, 0x3a, 0xf1, 0xc9, 0x40, 0x19, 0x25, 0x35, 0xca,
  0x0d, 0xe6, 0x65, 0x19, 0x1c, 0x04, 0x07, 0x07, 0xb3, 0x17, 0x53, 0x26,
  0xf4, 0x2b, 0x11, 0xf6, 0xe4, 0x23, 0x7f, 0x34, 0xeb, 0xd7, 0xd6, 0x04,
  0xd3, 0x11, 0x50, 0xde, 0x31, 0xfd, 0xe8, 0xf7, 0xd5, 0xcf, 0x76, 0xf2,
  0xd6, 0x13, 0xd5, 0xce, 0xf5, 0x27, 0x48, 0xc7, 0xcc, 0x2a, 0xfa, 0x14,
  0x0a, 0x95, 0x1b, 0x22, 0xd9, 0x02, 0x01, 0xe1, 0xa2, 0x0b, 0x2f, 0xe9,
  0xd0, 0x0b, 0xdb, 0xeb, 0xec, 0xd4, 0x27, 0xc8, 0xca, 0x03, 0xc1, 0x31,
  0xde, 0xb0, 0x13, 0x0a, 0xb9, 0xe1, 0x10, 0x16, 0x22, 0xe0, 0x02, 0xfe,
  0xcc, 0xe7, 0xb4, 0x24, 0xed, 0x25, 0x2a, 0xbe, 0x21, 0x05, 0x01, 0xd9,
  0xce, 0x16, 0xe3, 0xe7, 0x18, 0xc8, 0x19, 0xf2, 0xec, 0xeb, 0xe5, 0xd6,
  0xe3, 0x0d, 0x1f, 0xdf, 0xe5, 0x1f, 0xba, 0x15, 0xd6, 0xd1, 0x14, 0x13,
  0x73, 0x1c, 0xc6, 0x09, 0x7f, 0xa4, 0x4e, 0x31, 0x00, 0xe6, 0x29, 0x20,
  0xe6, 0xf1, 0x28, 0x35, 0x4c, 0xf6, 0xdc, 0x04, 0x25, 0xd9, 0xd2, 0xf9,
  0xfd, 0x27, 0x0f, 0xf9, 0x16, 0xca, 0xe9, 0x0a, 0xdc, 0xce, 0x03, 0xe0,
  0x07, 0xef, 0xef, 0xc5, 0xd7, 0xf2, 0x1b, 0x14, 0x06, 0x12, 0x24, 0x18,
  0x3a, 0x2c, 0x31, 0xd6, 0x0a, 0xbb, 0x33, 0x14, 0x0e, 0x26, 0x15, 0x0a,
  0x1b, 0xdc, 0xf8, 0xf6, 0x27, 0xf0, 0xda, 0x25, 0x2b, 0xf7, 0xd6, 0x20,
  0x39, 0x22, 0x11, 0xf8, 0xd5, 0xd4, 0x10, 0x1a, 0x36, 0x29, 0xf3, 0x15,
  0x16, 0xd7, 0x16, 0xe8, 0x1e, 0xe3, 0x3b, 0x2b, 0xd5, 0x0b, 0xe8, 0x22,
  0x4b, 0xee, 0x52, 0x14, 0x28, 0xe9, 0x2c, 0xe0, 0x0d, 0xfe, 0xc9, 0xe6,
  0x23, 0xd6, 0x30, 0x4d, 0x47, 0x55, 0xf2, 0xfe, 0xa6, 0xfa, 0xff, 0xff,
  0x04, 0x00, 0x00, 0x00, 0x80, 0x00, 0x00, 0x00, 0xb6, 0xff, 0xff, 0xff,
  0x0a, 0x01, 0x00, 0x00, 0x19, 0xfb, 0xff, 0xff, 0x3b, 0xfe, 0xff, 0xff,
  0xae, 0xfd, 0xff, 0xff, 0xf0, 0xfd, 0xff, 0xff, 0x50, 0xff, 0xff, 0xff,
  0x27, 0x02, 0x00, 0x00, 0x20, 0xfe, 0xff, 0xff, 0xbe, 0x00, 0x00, 0x00,
  0xe6, 0xfe, 0xff, 0xff, 0x95, 0xfb, 0xff, 0xff, 0xdb, 0x04, 0x00, 0x00,
  0xdc, 0xfb, 0xff, 0xff, 0x95, 0x00, 0x00, 0x00, 0x9c, 0xfd, 0xff, 0xff,
  0x41, 0xfc, 0xff, 0xff, 0xf8, 0x00, 0x00, 0x00, 0x75, 0xff, 0xff, 0xff,
  0x43, 0x00, 0x00, 0x00, 0x23, 0xfe, 0xff, 0xff, 0x89, 0xfc, 0xff, 0xff,
  0x8f, 0xfe, 0xff, 0xff, 0x59, 0xff, 0xff, 0xff, 0x43, 0x00, 0x00, 0x00,
  0x6b, 0xfd, 0xff, 0xff, 0x2c, 0xfd, 0xff, 0xff, 0x66, 0xff, 0xff, 0xff,
  0xd4, 0xfd, 0xff, 0xff, 0x0b, 0x03, 0x00, 0x00, 0x82, 0xfc, 0xff, 0xff,
  0xac, 0x00, 0x00, 0x00, 0x32, 0xfb, 0xff, 0xff, 0x04, 0x00, 0x00, 0x00,
  0x00, 0x04, 0x00, 0x00, 0xf4, 0x0f, 0xe9, 0xec, 0xc6, 0x1c, 0x19, 0xd9,
  0x1f, 0xd4, 0x11, 0x09, 0x18, 0x00, 0x10, 0xe0, 0xe6, 0xf9, 0x1c, 0xe6,
  0x24, 0x02, 0x14, 0x15, 0xdf, 0x05, 0xeb, 0x23, 0xd1, 0xff, 0xe4, 0x09,
  0xf6, 0x2b, 0x0e, 0xc1, 0xcd, 0x18, 0x25, 0xf5, 0xd4, 0xee, 0xfa, 0x38,
  0xda, 0xd6, 0xed, 0xe8, 0x09, 0x0d, 0x12, 0xed, 0x11, 0xd5, 0x27, 0x19,
  0x07, 0xdf, 0xc0, 0x0c, 0xb8, 0x43, 0xf5, 0xd6, 0x1b, 0x02, 0x0b, 0xe7,
  0x22, 0x11, 0x1d, 0xee, 0xec, 0x27, 0xd3, 0x47, 0xf2, 0xec, 0xc7, 0xfb,
  0xe8, 0xfe, 0xd5, 0x0d, 0xef, 0xfe, 0x0e, 0x07, 0xee, 0xe1, 0xbd, 0xe6,
  0xdd, 0x2e, 0xf5, 0xc7, 0x20, 0xf5, 0x0a, 0xf1, 0x13, 0x19, 0xf4, 0x00,
  0x22, 0x06, 0x2a, 0x27, 0xd5, 0x1f, 0xe5, 0xe2, 0xd6, 0xf7, 0x16, 0x16,
  0x02, 0xf1, 0xf0, 0x28, 0xeb, 0xf9, 0xed, 0x24, 0xfc, 0xf5, 0xfd, 0x00,
  0x21, 0x04, 0xf0, 0x00, 0x07, 0x19, 0x19, 0xc0, 0x01, 0xc9, 0xeb, 0xf6,
  0xfb, 0x0a, 0x19, 0x3d, 0x2a, 0x19, 0xe1, 0xd3, 0xf0, 0xd8, 0xfc, 0x0d,
  0xd0, 0x1c, 0xdd, 0xdf, 0xd8, 0x39, 0x26, 0xf8, 0x42, 0x23, 0xee, 0x12,
  0xec, 0x1a, 0x5b, 0xfd, 0xe6, 0x32, 0xc7, 0xeb, 0x24, 0xf4, 0xbc, 0x5d,
  0xfe, 0xc8, 0x2e, 0xc5, 0xec, 0x22, 0x3b, 0x7f, 0xbd, 0x2d, 0x01, 0x22,
  0xc3, 0x71, 0x75, 0xe3, 0x59, 0x47, 0xe3, 0x29, 0xe6, 0xff, 0x42, 0xfd,
  0xf0, 0x42, 0xa4, 0xc0, 0x39, 0xf7, 0xd5, 0x1a, 0xc3, 0xbd, 0x4c, 0x0b,
  0x15, 0x53, 0x42, 0x6e, 0xca, 0x25, 0xf7, 0x6b, 0xf8, 0x5d, 0x65, 0x1e,
  0x28, 0x4e, 0x22, 0x3d, 0xf9, 0xf0, 0xe7, 0xf7, 0xe2, 0x4f, 0xf5, 0xdf,
  0xd4, 0xf0, 0x0e, 0x01, 0x19, 0x03, 0x2c, 0xf4, 0xe1, 0x2d, 0xe1, 0x35,
  0xf4, 0x41, 0x2f, 0xfe, 0x17, 0x73, 0x54, 0xec, 0xeb, 0x08, 0x10, 0x0a,
  0xfa, 0x12, 0x0e, 0xe2, 0x25, 0xd2, 0x17, 0x0c, 0x10, 0xd6, 0x02, 0xfc,
  0xd6, 0xf6, 0x11, 0xe2, 0x1c, 0xd5, 0x17, 0xf8, 0x02, 0x22, 0x20, 0x15,
  0x04, 0xf5, 0x0c, 0x07, 0x00, 0x42, 0xfa, 0x47, 0xbf, 0xec, 0x55, 0x0f,
  0x27, 0xd8, 0xf8, 0xea, 0x50, 0xcc, 0x1f, 0x0e, 0xb6, 0xd5, 0x00, 0x03,
  0x07, 0x41, 0x3b, 0x01, 0xa4, 0x34, 0x17, 0x17, 0xd8, 0x18, 0x27, 0xc4,
  0x49, 0x11, 0x05, 0x1f, 0xc5, 0xfa, 0x50, 0xc5, 0x1b, 0x0f, 0xc5, 0xb2,
  0x2e, 0xf3, 0x13, 0x4a, 0xdd, 0xf3, 0x04, 0xe6, 0xec, 0x32, 0xca, 0x2c,
  0xdb, 0x60, 0x46, 0x00, 0xf3, 0x24, 0x42, 0xb8, 0x21, 0x37, 0xfc, 0x35,
  0xdb, 0x0a, 0x1e, 0x1f, 0xd1, 0x23, 0xd2, 0xc9, 0xf4, 0x12, 0xcf, 0x13,
  0xf3, 0xfe, 0x34, 0xe1, 0x0c, 0x4e, 0xbf, 0x08, 0xf7, 0x1e, 0x20, 0x02,
  0x1d, 0x18, 0x13, 0xf5, 0xeb, 0x1c, 0x12, 0x16, 0x1d, 0xfa, 0xe1, 0xe8,
  0x04, 0xfc, 0x1d, 0xf2, 0x23, 0x03, 0xdb, 0xf6, 0x1e, 0xeb, 0x0e, 0x18,
  0xe8, 0x09, 0x06, 0x0d, 0x16, 0xe8, 0xf3, 0xff, 0x0e, 0x12, 0x01, 0x00,
  0xf4, 0x00, 0x13, 0xb8, 0xf1, 0x16, 0x2b, 0xbc, 0xef, 0x16, 0xea, 0x13,
  0x02, 0xe4, 0x1e, 0x0e, 0x0d, 0xee, 0x02, 0x2b, 0x19, 0x2a, 0xe5, 0x1b,
  0xb9, 0xdd, 0x13, 0x10, 0xd4, 0xf3, 0xf5, 0xfb, 0xcb, 0xfe, 0x1a, 0x07,
  0xfe, 0x03, 0x1f, 0xd9, 0x04, 0x10, 0x0d, 0xfb, 0xe6, 0xd7, 0xfe, 0xf0,
  0x16, 0xd5, 0xb9, 0x2d, 0xf6, 0xe4, 0xc5, 0x05, 0xc0, 0x03, 0xf4, 0xf1,
  0xfd, 0xdd, 0x03, 0xb0, 0xf7, 0xe8, 0xe9, 0x0c, 0xea, 0xd0, 0xfc, 0x07,
  0xde, 0x1f, 0x00, 0x05, 0xb8, 0x16, 0x16, 0x0f, 0xe8, 0xe8, 0x0c, 0xfa,
  0x03, 0x21, 0xce, 0xe7, 0x04, 0x22, 0x12, 0xd3, 0x02, 0xde, 0xfa, 0xe2,
  0xe8, 0xbd, 0xde, 0xe7, 0x04, 0x18, 0xf6, 0xfd, 0xf2, 0xf7, 0x02, 0x01,
  0xe5, 0x18, 0xf1, 0x0c, 0x0f, 0x0c, 0xfc, 0x23, 0x06, 0xfd, 0x11, 0x06,
  0x24, 0x1a, 0x1b, 0xec, 0x04, 0xdc, 0xf5, 0x23, 0xd4, 0xf5, 0x03, 0x40,
  0x2e, 0xc7, 0xdd, 0x11, 0x0f, 0x1d, 0x14, 0xc4, 0x1d, 0xfe, 0x36, 0x17,
  0xe3, 0xf3, 0x2d, 0x09, 0x1d, 0x2a, 0xd7, 0xb5, 0x3d, 0xf2, 0x27, 0xed,
  0x38, 0xce, 0xe4, 0x1f, 0x01, 0x0d, 0x07, 0x2b, 0xf6, 0xc2, 0x06, 0xf2,
  0x0d, 0x12, 0x13, 0xb8, 0x25, 0xf9, 0x1f, 0x0e, 0xe7, 0x1c, 0x00, 0x0d,
  0xf1, 0x35, 0xfa, 0xfd, 0x09, 0x2d, 0x3c, 0xf2, 0x25, 0xf8, 0x0d, 0x06,
  0x05, 0xd3, 0xe1, 0x0d, 0x25, 0xf9, 0xdd, 0xff, 0x05, 0x11, 0xff, 0xd9,
  0xfd, 0x05, 0xe7, 0xfa, 0x30, 0x11, 0xee, 0x0f, 0xec, 0xf8, 0xe0, 0xbe,
  0xfc, 0x25, 0x0e, 0xd6, 0x17, 0xdc, 0x17, 0xeb, 0x0a, 0xe9, 0xec, 0x28,
  0x1b, 0x19, 0xe8, 0x05, 0x0c, 0x26, 0x08, 0x25, 0x03, 0x28, 0x11, 0xf2,
  0x16, 0x1b, 0xdf, 0x0e, 0x18, 0x01, 0xde, 0xd0, 0x2e, 0xf6, 0xe1, 0x21,
  0x0b, 0xff, 0xd7, 0x2c, 0xbb, 0xad, 0xde, 0xbb, 0x3f, 0x1a, 0xa8, 0xce,
  0xf4, 0x0b, 0x4b, 0x17, 0xe3, 0x19, 0x24, 0xc9, 0xc7, 0x24, 0x14, 0x1b,
  0x02, 0xaa, 0xdd, 0x8a, 0x32, 0xbf, 0xe0, 0xd1, 0x17, 0xb7, 0x9a, 0x2a,
  0x97, 0xb2, 0x07, 0x0d, 0x24, 0x12, 0xc1, 0xd4, 0xf9, 0xdc, 0x4a, 0x23,
  0xc0, 0xea, 0x0e, 0xaa, 0x3f, 0x48, 0xa3, 0x13, 0x1e, 0xc8, 0xd3, 0xc0,
  0x0a, 0xb5, 0x0a, 0xb9, 0x2e, 0x9b, 0xd0, 0xea, 0xb5, 0xc7, 0x13, 0xc4,
  0xf4, 0xf7, 0x18, 0xdd, 0xfc, 0xd8, 0xfc, 0xee, 0x0a, 0xf0, 0xe6, 0xcf,
  0x03, 0x25, 0xfb, 0x1f, 0x14, 0x02, 0x46, 0x9d, 0xe5, 0xdf, 0xe0, 0x01,
  0x09, 0xad, 0xa6, 0x13, 0xdc, 0xbb, 0x1b, 0x22, 0xff, 0x07, 0xd3, 0x43,
  0x04, 0x05, 0x06, 0x1e, 0xe7, 0x05, 0xe6, 0x03, 0x1f, 0x18, 0x1e, 0x20,
  0x20, 0x1f, 0xf1, 0x27, 0x07, 0x06, 0x00, 0x1f, 0xf6, 0x1d, 0x08, 0x00,
  0xe5, 0xe6, 0xd6, 0xc3, 0x08, 0x0f, 0xba, 0x2d, 0xc3, 0x2b, 0x1f, 0x1a,
  0xd8, 0x15, 0xd9, 0xdc, 0x26, 0x14, 0x0b, 0x27, 0xe5, 0xde, 0xd2, 0xf4,
  0x26, 0xb3, 0xb9, 0xd0, 0x11, 0xd4, 0xc9, 0x3a, 0xcf, 0xc2, 0xfc, 0xc8,
  0x33, 0xcb, 0xa5, 0x36, 0x03, 0xf3, 0x4a, 0x3c, 0x02, 0x2d, 0xf4, 0xe1,
  0x23, 0x0f, 0x11, 0xfa, 0xfd, 0xb4, 0xf9, 0xc7, 0x47, 0xc7, 0xda, 0xea,
  0x2e, 0xd1, 0xbb, 0x2a, 0xe5, 0xd0, 0xfa, 0xc6, 0x02, 0xf1, 0x1b, 0xff,
  0x28, 0xe6, 0x17, 0x02, 0x2d, 0x02, 0x28, 0xff, 0xff, 0x0f, 0xc3, 0x22,
  0x09, 0xd6, 0x0f, 0x08, 0x1a, 0xc8, 0xf7, 0xec, 0xf7, 0xec, 0xf9, 0xed,
  0x29, 0xe5, 0xec, 0xf0, 0x08, 0xf3, 0xdc, 0x1d, 0xf4, 0xef, 0x03, 0x17,
  0xfe, 0xd9, 0xfd, 0xdd, 0xe1, 0x05, 0x0b, 0x02, 0x1d, 0xf1, 0xed, 0xf4,
  0xfc, 0x0c, 0xdd, 0xf2, 0xf6, 0x08, 0x0a, 0x05, 0x02, 0xf6, 0xeb, 0x15,
  0x25, 0x14, 0xd9, 0x38, 0x11, 0x0b, 0xec, 0x02, 0xd4, 0xf3, 0x04, 0xd9,
  0xb2, 0x1c, 0x1b, 0xde, 0xf2, 0x0d, 0xf0, 0xdb, 0x34, 0xdc, 0x00, 0x21,
  0xf1, 0xf9, 0x1e, 0x3a, 0x13, 0x28, 0xf6, 0x14, 0xef, 0xee, 0xfc, 0x25,
  0xe7, 0x1d, 0xee, 0x0c, 0x24, 0x1d, 0xd4, 0x1b, 0xef, 0x15, 0x3c, 0xe3,
  0xff, 0xdf, 0x27, 0x00, 0x10, 0x38, 0x21, 0x3c, 0x0a, 0x16, 0x19, 0x53,
  0xea, 0x09, 0xe1, 0x16, 0x1a, 0x2f, 0xf0, 0x0e, 0xed, 0x0d, 0x27, 0x19,
  0x4c, 0xfc, 0x0f, 0x18, 0x39, 0x1f, 0x06, 0x12, 0xd1, 0xf3, 0x0e, 0xf3,
  0x05, 0xce, 0xff, 0x11, 0xd8, 0x05, 0x30, 0xd8, 0x3e, 0xff, 0xff, 0xff,
  0x04, 0x00, 0x00, 0x00, 0x08, 0x00, 0x00, 0x00, 0x57, 0xff, 0xff, 0xff,
  0xa9, 0x00, 0x00, 0x00, 0x52, 0xff, 0xff, 0xff, 0x04, 0x00, 0x00, 0x00,
  0x08, 0x00, 0x00, 0x00, 0xff, 0xff, 0xff, 0xff, 0x00, 0x02, 0x00, 0x00,
  0x14, 0xef, 0xff, 0xff, 0x18, 0xef, 0xff, 0xff, 0x0f, 0x00, 0x00, 0x00,
  0x4d, 0x4c, 0x49, 0x52, 0x20, 0x43, 0x6f, 0x6e, 0x76, 0x65, 0x72, 0x74,
  0x65, 0x64, 0x2e, 0x00, 0x01, 0x00, 0x00, 0x00, 0x14, 0x00, 0x00, 0x00,
  0x00, 0x00, 0x0e, 0x00, 0x18, 0x00, 0x14, 0x00, 0x10, 0x00, 0x0c, 0x00,
  0x08, 0x00, 0x04, 0x00, 0x0e, 0x00, 0x00, 0x00, 0x14, 0x00, 0x00, 0x00,
  0x1c, 0x00, 0x00, 0x00, 0x80, 0x02, 0x00, 0x00, 0x84, 0x02, 0x00, 0x00,
  0x88, 0x02, 0x00, 0x00, 0x04, 0x00, 0x00, 0x00, 0x6d, 0x61, 0x69, 0x6e,
  0x00, 0x00, 0x00, 0x00, 0x09, 0x00, 0x00, 0x00, 0x1c, 0x02, 0x00, 0x00,
  0xbc, 0x01, 0x00, 0x00, 0x6c, 0x01, 0x00, 0x00, 0x2c, 0x01, 0x00, 0x00,
  0xec, 0x00, 0x00, 0x00, 0xac, 0x00, 0x00, 0x00, 0x84, 0x00, 0x00, 0x00,
  0x40, 0x00, 0x00, 0x00, 0x04, 0x00, 0x00, 0x00, 0x72, 0xfe, 0xff, 0xff,
  0x1c, 0x00, 0x00, 0x00, 0x00, 0x00, 0x00, 0x09, 0x1c, 0x00, 0x00, 0x00,
  0x20, 0x00, 0x00, 0x00, 0x04, 0x00, 0x00, 0x00, 0x00, 0x00, 0x06, 0x00,
  0x08, 0x00, 0x04, 0x00, 0x06, 0x00, 0x00, 0x00, 0x00, 0x00, 0x80, 0x3f,
  0x01, 0x00, 0x00, 0x00, 0x12, 0x00, 0x00, 0x00, 0x01, 0x00, 0x00, 0x00,
  0x11, 0x00, 0x00, 0x00, 0xaa, 0xfe, 0xff, 0xff, 0x14, 0x00, 0x00, 0x00,
  0x00, 0x00, 0x00, 0x08, 0x10, 0x00, 0x00, 0x00, 0x14, 0x00, 0x00, 0x00,
  0x03, 0x00, 0x00, 0x00, 0xe4, 0xef, 0xff, 0xff, 0x01, 0x00, 0x00, 0x00,
  0x11, 0x00, 0x00, 0x00, 0x03, 0x00, 0x00, 0x00, 0x10, 0x00, 0x00, 0x00,
  0x03, 0x00, 0x00, 0x00, 0x02, 0x00, 0x00, 0x00, 0x00, 0x00, 0x0a, 0x00,
  0x10, 0x00, 0x0c, 0x00, 0x08, 0x00, 0x04, 0x00, 0x0a, 0x00, 0x00, 0x00,
  0x0c, 0x00, 0x00, 0x00, 0x10, 0x00, 0x00, 0x00, 0x02, 0x00, 0x00, 0x00,
  0x01, 0x00, 0x00, 0x00, 0x10, 0x00, 0x00, 0x00, 0x02, 0x00, 0x00, 0x00,
  0x0f, 0x00, 0x00, 0x00, 0x01, 0x00, 0x00, 0x00, 0x0e, 0xff, 0xff, 0xff,
  0x14, 0x00, 0x00, 0x00, 0x00, 0x00, 0x00, 0x05, 0x20, 0x00, 0x00, 0x00,
  0x24, 0x00, 0x00, 0x00, 0x01, 0x00, 0x00, 0x00, 0xfe, 0xfe, 0xff, 0xff,
  0x02, 0x00, 0x00, 0x00, 0x02, 0x00, 0x00, 0x00, 0x02, 0x00, 0x00, 0x00,
  0x02, 0x00, 0x00, 0x00, 0x01, 0x00, 0x00, 0x00, 0x0f, 0x00, 0x00, 0x00,
  0x01, 0x00, 0x00, 0x00, 0x0e, 0x00, 0x00, 0x00, 0xee, 0xfe, 0xff, 0xff,
  0x10, 0x00, 0x00, 0x00, 0x00, 0x00, 0x00, 0x01, 0x18, 0x00, 0x00, 0x00,
  0x1c, 0x00, 0x00, 0x00, 0xe0, 0xfe, 0xff, 0xff, 0x00, 0x00, 0x00, 0x01,
  0x01, 0x00, 0x00, 0x00, 0x01, 0x00, 0x00, 0x00, 0x01, 0x00, 0x00, 0x00,
  0x0e, 0x00, 0x00, 0x00, 0x03, 0x00, 0x00, 0x00, 0x0d, 0x00, 0x00, 0x00,
  0x05, 0x00, 0x00, 0x00, 0x04, 0x00, 0x00, 0x00, 0x86, 0xff, 0xff, 0xff,
  0x14, 0x00, 0x00, 0x00, 0x00, 0x00, 0x00, 0x05, 0x20, 0x00, 0x00, 0x00,
  0x24, 0x00, 0x00, 0x00, 0x01, 0x00, 0x00, 0x00, 0x76, 0xff, 0xff, 0xff,
  0x02, 0x00, 0x00, 0x00, 0x02, 0x00, 0x00, 0x00, 0x02, 0x00, 0x00, 0x00,
  0x02, 0x00, 0x00, 0x00, 0x01, 0x00, 0x00, 0x00, 0x0d, 0x00, 0x00, 0x00,
  0x01, 0x00, 0x00, 0x00, 0x0c, 0x00, 0x00, 0x00, 0x66, 0xff, 0xff, 0xff,
  0x10, 0x00, 0x00, 0x00, 0x00, 0x00, 0x00, 0x01, 0x18, 0x00, 0x00, 0x00,
  0x1c, 0x00, 0x00, 0x00, 0x58, 0xff, 0xff, 0xff, 0x00, 0x00, 0x00, 0x01,
  0x01, 0x00, 0x00, 0x00, 0x01, 0x00, 0x00, 0x00, 0x01, 0x00, 0x00, 0x00,
  0x0c, 0x00, 0x00, 0x00, 0x03, 0x00, 0x00, 0x00, 0x0b, 0x00, 0x00, 0x00,
  0x07, 0x00, 0x00, 0x00, 0x06, 0x00, 0x00, 0x00, 0x00, 0x00, 0x0e, 0x00,
  0x1a, 0x00, 0x14, 0x00, 0x10, 0x00, 0x0c, 0x00, 0x0b, 0x00, 0x04, 0x00,
  0x0e, 0x00, 0x00, 0x00, 0x24, 0x00, 0x00, 0x00, 0x00, 0x00, 0x00, 0x05,
  0x30, 0x00, 0x00, 0x00, 0x34, 0x00, 0x00, 0x00, 0x01, 0x00, 0x00, 0x00,
  0x00, 0x00, 0x0e, 0x00, 0x14, 0x00, 0x00, 0x00, 0x10, 0x00, 0x0c, 0x00,
  0x08, 0x00, 0x04, 0x00, 0x0e, 0x00, 0x00, 0x00, 0x02, 0x00, 0x00, 0x00,
  0x02, 0x00, 0x00, 0x00, 0x02, 0x00, 0x00, 0x00, 0x02, 0x00, 0x00, 0x00,
  0x01, 0x00, 0x00, 0x00, 0x0b, 0x00, 0x00, 0x00, 0x01, 0x00, 0x00, 0x00,
  0x0a, 0x00, 0x00, 0x00, 0x00, 0x00, 0x0e, 0x00, 0x14, 0x00, 0x00, 0x00,
  0x10, 0x00, 0x0c, 0x00, 0x0b, 0x00, 0x04, 0x00, 0x0e, 0x00, 0x00, 0x00,
  0x1c, 0x00, 0x00, 0x00, 0x00, 0x00, 0x00, 0x01, 0x24, 0x00, 0x00, 0x00,
  0x28, 0x00, 0x00, 0x00, 0x0c, 0x00, 0x10, 0x00, 0x00, 0x00, 0x0c, 0x00,
  0x08, 0x00, 0x07, 0x00, 0x0c, 0x00, 0x00, 0x00, 0x00, 0x00, 0x00, 0x01,
  0x01, 0x00, 0x00, 0x00, 0x01, 0x00, 0x00, 0x00, 0x01, 0x00, 0x00, 0x00,
  0x0a, 0x00, 0x00, 0x00, 0x03, 0x00, 0x00, 0x00, 0x00, 0x00, 0x00, 0x00,
  0x09, 0x00, 0x00, 0x00, 0x08, 0x00, 0x00, 0x00, 0x01, 0x00, 0x00, 0x00,
  0x12, 0x00, 0x00, 0x00, 0x01, 0x00, 0x00, 0x00, 0x00, 0x00, 0x00, 0x00,
  0x13, 0x00, 0x00, 0x00, 0x60, 0x0e, 0x00, 0x00, 0xf8, 0x0d, 0x00, 0x00,
  0x7c, 0x0d, 0x00, 0x00, 0x10, 0x0d, 0x00, 0x00, 0x24, 0x0b, 0x00, 0x00,
  0x38, 0x09, 0x00, 0x00, 0x0c, 0x08, 0x00, 0x00, 0xe0, 0x06, 0x00, 0x00,
  0x14, 0x06, 0x00, 0x00, 0x48, 0x05, 0x00, 0x00, 0x7c, 0x04, 0x00, 0x00,
  0x00, 0x04, 0x00, 0x00, 0x2c, 0x03, 0x00, 0x00, 0xb0, 0x02, 0x00, 0x00,
  0xdc, 0x01, 0x00, 0x00, 0x60, 0x01, 0x00, 0x00, 0xf4, 0x00, 0x00, 0x00,
  0x70, 0x00, 0x00, 0x00, 0x04, 0x00, 0x00, 0x00, 0x02, 0xf2, 0xff, 0xff,
  0x00, 0x00, 0x00, 0x01, 0x14, 0x00, 0x00, 0x00, 0x30, 0x00, 0x00, 0x00,
  0x13, 0x00, 0x00, 0x00, 0x00, 0x00, 0x00, 0x09, 0x44, 0x00, 0x00, 0x00,
  0xec, 0xf1, 0xff, 0xff, 0x08, 0x00, 0x00, 0x00, 0x10, 0x00, 0x00, 0x00,
  0x01, 0x00, 0x00, 0x00, 0x80, 0xff, 0xff, 0xff, 0xff, 0xff, 0xff, 0xff,
  0x01, 0x00, 0x00, 0x00, 0x00, 0x00, 0x80, 0x3b, 0x19, 0x00, 0x00, 0x00,
  0x53, 0x74, 0x61, 0x74, 0x65, 0x66, 0x75, 0x6c, 0x50, 0x61, 0x72, 0x74,
  0x69, 0x74, 0x69, 0x6f, 0x6e, 0x65, 0x64, 0x43, 0x61, 0x6c, 0x6c, 0x3a,
  0x30, 0x00, 0x00, 0x00, 0x02, 0x00, 0x00, 0x00, 0x01, 0x00, 0x00, 0x00,
  0x02, 0x00, 0x00, 0x00, 0x6a, 0xf2, 0xff, 0xff, 0x00, 0x00, 0x00, 0x01,
  0x14, 0x00, 0x00, 0x00, 0x30, 0x00, 0x00, 0x00, 0x12, 0x00, 0x00, 0x00,
  0x00, 0x00, 0x00, 0x09, 0x5c, 0x00, 0x00, 0x00, 0x54, 0xf2, 0xff, 0xff,
  0x08, 0x00, 0x00, 0x00, 0x10, 0x00, 0x00, 0x00, 0x01, 0x00, 0x00, 0x00,
  0xf4, 0xff, 0xff, 0xff, 0xff, 0xff, 0xff, 0xff, 0x01, 0x00, 0x00, 0x00,
  0x99, 0x76, 0x1b, 0x3e, 0x32, 0x00, 0x00, 0x00, 0x73, 0x65, 0x71, 0x75,
  0x65, 0x6e, 0x74, 0x69, 0x61, 0x6c, 0x2f, 0x79, 0x5f, 0x70, 0x72, 0x65,
  0x64, 0x2f, 0x4d, 0x61, 0x74, 0x4d, 0x75, 0x6c, 0x3b, 0x73, 0x65, 0x71,
  0x75, 0x65, 0x6e, 0x74, 0x69, 0x61, 0x6c, 0x2f, 0x79, 0x5f, 0x70, 0x72,
  0x65, 0x64, 0x2f, 0x42, 0x69, 0x61, 0x73, 0x41, 0x64, 0x64, 0x00, 0x00,
  0x02, 0x00, 0x00, 0x00, 0x01, 0x00, 0x00, 0x00, 0x02, 0x00, 0x00, 0x00,
  0xea, 0xf2, 0xff, 0xff, 0x00, 0x00, 0x00, 0x01, 0x14, 0x00, 0x00, 0x00,
  0x30, 0x00, 0x00, 0x00, 0x11, 0x00, 0x00, 0x00, 0x00, 0x00, 0x00, 0x09,
  0x44, 0x00, 0x00, 0x00, 0xd4, 0xf2, 0xff, 0xff, 0x08, 0x00, 0x00, 0x00,
  0x10, 0x00, 0x00, 0x00, 0x01, 0x00, 0x00, 0x00, 0x80, 0xff, 0xff, 0xff,
  0xff, 0xff, 0xff, 0xff, 0x01, 0x00, 0x00, 0x00, 0x8b, 0xc0, 0xd2, 0x3c,
  0x1a, 0x00, 0x00, 0x00, 0x73, 0x65, 0x71, 0x75, 0x65, 0x6e, 0x74, 0x69,
  0x61, 0x6c, 0x2f, 0x66, 0x6c, 0x61, 0x74, 0x74, 0x65, 0x6e, 0x2f, 0x52,
  0x65, 0x73, 0x68, 0x61, 0x70, 0x65, 0x00, 0x00, 0x02, 0x00, 0x00, 0x00,
  0x01, 0x00, 0x00, 0x00, 0x00, 0x02, 0x00, 0x00, 0x52, 0xf3, 0xff, 0xff,
  0x00, 0x00, 0x00, 0x01, 0x14, 0x00, 0x00, 0x00, 0x30, 0x00, 0x00, 0x00,
  0x10, 0x00, 0x00, 0x00, 0x00, 0x00, 0x00, 0x09, 0x4c, 0x00, 0x00, 0x00,
  0x3c, 0xf3, 0xff, 0xff, 0x08, 0x00, 0x00, 0x00, 0x10, 0x00, 0x00, 0x00,
  0x01, 0x00, 0x00, 0x00, 0x80, 0xff, 0xff, 0xff, 0xff, 0xff, 0xff, 0xff,
  0x01, 0x00, 0x00, 0x00, 0x8b, 0xc0, 0xd2, 0x3c, 0x22, 0x00, 0x00, 0x00,
  0x73, 0x65, 0x71, 0x75, 0x65, 0x6e, 0x74, 0x69, 0x61, 0x6c, 0x2f, 0x6d,
  0x61, 0x78, 0x5f, 0x70, 0x6f, 0x6f, 0x6c, 0x69, 0x6e, 0x67, 0x32, 0x64,
  0x5f, 0x32, 0x2f, 0x4d, 0x61, 0x78, 0x50, 0x6f, 0x6f, 0x6c, 0x00, 0x00,
  0x04, 0x00, 0x00, 0x00, 0x01, 0x00, 0x00, 0x00, 0x04, 0x00, 0x00, 0x00,
  0x04, 0x00, 0x00, 0x00, 0x20, 0x00, 0x00, 0x00, 0xca, 0xf3, 0xff, 0xff,
  0x00, 0x00, 0x00, 0x01, 0x14, 0x00, 0x00, 0x00, 0x30, 0x00, 0x00, 0x00,
  0x0f, 0x00, 0x00, 0x00, 0x00, 0x00, 0x00, 0x09, 0xa4, 0x00, 0x00, 0x00,
  0xb4, 0xf3, 0xff, 0xff, 0x08, 0x00, 0x00, 0x00, 0x10, 0x00, 0x00, 0x00,
  0x01, 0x00, 0x00, 0x00, 0x80, 0xff, 0xff, 0xff, 0xff, 0xff, 0xff, 0xff,
  0x01, 0x00, 0x00, 0x00, 0x8b, 0xc0, 0xd2, 0x3c, 0x7a, 0x00, 0x00, 0x00,
  0x73, 0x65, 0x71, 0x75, 0x65, 0x6e, 0x74, 0x69, 0x61, 0x6c, 0x2f, 0x63,
  0x6f, 0x6e, 0x76, 0x32, 0x64, 0x5f, 0x32, 0x2f, 0x52, 0x65, 0x6c, 0x75,
  0x3b, 0x73, 0x65, 0x71, 0x75, 0x65, 0x6e, 0x74, 0x69, 0x61, 0x6c, 0x2f,
  0x63, 0x6f, 0x6e, 0x76, 0x32, 0x64, 0x5f, 0x32, 0x2f, 0x42, 0x69, 0x61,
  0x73, 0x41, 0x64, 0x64, 0x3b, 0x73, 0x65, 0x71, 0x75, 0x65, 0x6e, 0x74,
  0x69, 0x61, 0x6c, 0x2f, 0x63, 0x6f, 0x6e, 0x76, 0x32, 0x64, 0x5f, 0x32,
  0x2f, 0x43, 0x6f, 0x6e, 0x76, 0x32, 0x44, 0x3b, 0x73, 0x65, 0x71, 0x75,
  0x65, 0x6e, 0x74, 0x69, 0x61, 0x6c, 0x2f, 0x63, 0x6f, 0x6e, 0x76, 0x32,
  0x64, 0x5f, 0x32, 0x2f, 0x42, 0x69, 0x61, 0x73, 0x41, 0x64, 0x64, 0x2f,
  0x52, 0x65, 0x61, 0x64, 0x56, 0x61, 0x72, 0x69, 0x61, 0x62, 0x6c, 0x65,
  0x4f, 0x70, 0x00, 0x00, 0x04, 0x00, 0x00, 0x00, 0x01, 0x00, 0x00, 0x00,
  0x08, 0x00, 0x00, 0x00, 0x08, 0x00, 0x00, 0x00, 0x20, 0x00, 0x00, 0x00,
  0x9a, 0xf4, 0xff, 0xff, 0x00, 0x00, 0x00, 0x01, 0x14, 0x00, 0x00, 0x00,
  0x30, 0x00, 0x00, 0x00, 0x0e, 0x00, 0x00, 0x00, 0x00, 0x00, 0x00, 0x09,
  0x4c, 0x00, 0x00, 0x00, 0x84, 0xf4, 0xff, 0xff, 0x08, 0x00, 0x00, 0x00,
  0x10, 0x00, 0x00, 0x00, 0x01, 0x00, 0x00, 0x00, 0x80, 0xff, 0xff, 0xff,
  0xff, 0xff, 0xff, 0xff, 0x01, 0x00, 0x00, 0x00, 0x9e, 0xdc, 0x59, 0x3c,
  0x22, 0x00, 0x00, 0x00, 0x73, 0x65, 0x71, 0x75, 0x65, 0x6e, 0x74, 0x69,
  0x61, 0x6c, 0x2f, 0x6d, 0x61, 0x78, 0x5f, 0x70, 0x6f, 0x6f, 0x6c, 0x69,
  0x6e, 0x67, 0x32, 0x64, 0x5f, 0x31, 0x2f, 0x4d, 0x61, 0x78, 0x50, 0x6f,
  0x6f, 0x6c, 0x00, 0x00, 0x04, 0x00, 0x00, 0x00, 0x01, 0x00, 0x00, 0x00,
  0x08, 0x00, 0x00, 0x00, 0x08, 0x00, 0x00, 0x00, 0x10, 0x00, 0x00, 0x00,
  0x12, 0xf5, 0xff, 0xff, 0x00, 0x00, 0x00, 0x01, 0x14, 0x00, 0x00, 0x00,
  0x30, 0x00, 0x00, 0x00, 0x0d, 0x00, 0x00, 0x00, 0x00, 0x00, 0x00, 0x09,
  0xa4, 0x00, 0x00, 0x00, 0xfc, 0xf4, 0xff, 0xff, 0x08, 0x00, 0x00, 0x00,
  0x10, 0x00, 0x00, 0x00, 0x01, 0x00, 0x00, 0x00, 0x80, 0xff, 0xff, 0xff,
  0xff, 0xff, 0xff, 0xff, 0x01, 0x00, 0x00, 0x00, 0x9e, 0xdc, 0x59, 0x3c,
  0x7a, 0x00, 0x00, 0x00, 0x73, 0x65, 0x71, 0x75, 0x65, 0x6e, 0x74, 0x69,
  0x61, 0x6c, 0x2f, 0x63, 0x6f, 0x6e, 0x76, 0x32, 0x64, 0x5f, 0x31, 0x2f,
  0x52, 0x65, 0x6c, 0x75, 0x3b, 0x73, 0x65, 0x71, 0x75, 0x65, 0x6e, 0x74,
  0x69, 0x61, 0x6c, 0x2f, 0x63, 0x6f, 0x6e, 0x76, 0x32, 0x64, 0x5f, 0x31,
  0x2f, 0x42, 0x69, 0x61, 0x73, 0x41, 0x64, 0x64, 0x3b, 0x73, 0x65, 0x71,
  0x75, 0x65, 0x6e, 0x74, 0x69, 0x61, 0x6c, 0x2f, 0x63, 0x6f, 0x6e, 0x76,
  0x32, 0x64, 0x5f, 0x31, 0x2f, 0x43, 0x6f, 0x6e, 0x76, 0x32, 0x44, 0x3b,
  0x73, 0x65, 0x71, 0x75, 0x65, 0x6e, 0x74, 0x69, 0x61, 0x6c, 0x2f, 0x63,
  0x6f, 0x6e, 0x76, 0x32, 0x64, 0x5f, 0x31, 0x2f, 0x42, 0x69, 0x61, 0x73,
  0x41, 0x64, 0x64, 0x2f, 0x52, 0x65, 0x61, 0x64, 0x56, 0x61, 0x72, 0x69,
  0x61, 0x62, 0x6c, 0x65, 0x4f, 0x70, 0x00, 0x00, 0x04, 0x00, 0x00, 0x00,
  0x01, 0x00, 0x00, 0x00, 0x10, 0x00, 0x00, 0x00, 0x10, 0x00, 0x00, 0x00,
  0x10, 0x00, 0x00, 0x00, 0xe2, 0xf5, 0xff, 0xff, 0x00, 0x00, 0x00, 0x01,
  0x14, 0x00, 0x00, 0x00, 0x30, 0x00, 0x00, 0x00, 0x0c, 0x00, 0x00, 0x00,
  0x00, 0x00, 0x00, 0x09, 0x4c, 0x00, 0x00, 0x00, 0xcc, 0xf5, 0xff, 0xff,
  0x08, 0x00, 0x00, 0x00, 0x10, 0x00, 0x00, 0x00, 0x01, 0x00, 0x00, 0x00,
  0x80, 0xff, 0xff, 0xff, 0xff, 0xff, 0xff, 0xff, 0x01, 0x00, 0x00, 0x00,
  0x13, 0x45, 0xb6, 0x3b, 0x20, 0x00, 0x00, 0x00, 0x73, 0x65, 0x71, 0x75,
  0x65, 0x6e, 0x74, 0x69, 0x61, 0x6c, 0x2f, 0x6d, 0x61, 0x78, 0x5f, 0x70,
  0x6f, 0x6f, 0x6c, 0x69, 0x6e, 0x67, 0x32, 0x64, 0x2f, 0x4d, 0x61, 0x78,
  0x50, 0x6f, 0x6f, 0x6c, 0x00, 0x00, 0x00, 0x00, 0x04, 0x00, 0x00, 0x00,
  0x01, 0x00, 0x00, 0x00, 0x10, 0x00, 0x00, 0x00, 0x10, 0x00, 0x00, 0x00,
  0x08, 0x00, 0x00, 0x00, 0x5a, 0xf6, 0xff, 0xff, 0x00, 0x00, 0x00, 0x01,
  0x14, 0x00, 0x00, 0x00, 0x30, 0x00, 0x00, 0x00, 0x0b, 0x00, 0x00, 0x00,
  0x00, 0x00, 0x00, 0x09, 0x9c, 0x00, 0x00, 0x00, 0x44, 0xf6, 0xff, 0xff,
  0x08, 0x00, 0x00, 0x00, 0x10, 0x00, 0x00, 0x00, 0x01, 0x00, 0x00, 0x00,
  0x80, 0xff, 0xff, 0xff, 0xff, 0xff, 0xff, 0xff, 0x01, 0x00, 0x00, 0x00,
  0x13, 0x45, 0xb6, 0x3b, 0x72, 0x00, 0x00, 0x00, 0x73, 0x65, 0x71, 0x75,
  0x65, 0x6e, 0x74, 0x69, 0x61, 0x6c, 0x2f, 0x63, 0x6f, 0x6e, 0x76, 0x32,
  0x64, 0x2f, 0x52, 0x65, 0x6c, 0x75, 0x3b, 0x73, 0x65, 0x71, 0x75, 0x65,
  0x6e, 0x74, 0x69, 0x61, 0x6c, 0x2f, 0x63, 0x6f, 0x6e, 0x76, 0x32, 0x64,
  0x2f, 0x42, 0x69, 0x61, 0x73, 0x41, 0x64, 0x64, 0x3b, 0x73, 0x65, 0x71,
  0x75, 0x65, 0x6e, 0x74, 0x69, 0x61, 0x6c, 0x2f, 0x63, 0x6f, 0x6e, 0x76,
  0x32, 0x64, 0x2f, 0x43, 0x6f, 0x6e, 0x76, 0x32, 0x44, 0x3b, 0x73, 0x65,
  0x71, 0x75, 0x65, 0x6e, 0x74, 0x69, 0x61, 0x6c, 0x2f, 0x63, 0x6f, 0x6e,
  0x76, 0x32, 0x64, 0x2f, 0x42, 0x69, 0x61, 0x73, 0x41, 0x64, 0x64, 0x2f,
  0x52, 0x65, 0x61, 0x64, 0x56, 0x61, 0x72, 0x69, 0x61, 0x62, 0x6c, 0x65,
  0x4f, 0x70, 0x00, 0x00, 0x04, 0x00, 0x00, 0x00, 0x01, 0x00, 0x00, 0x00,
  0x20, 0x00, 0x00, 0x00, 0x20, 0x00, 0x00, 0x00, 0x08, 0x00, 0x00, 0x00,
  0x22, 0xf7, 0xff, 0xff, 0x00, 0x00, 0x00, 0x01, 0x14, 0x00, 0x00, 0x00,
  0x88, 0x00, 0x00, 0x00, 0x0a, 0x00, 0x00, 0x00, 0x00, 0x00, 0x00, 0x09,
  0x9c, 0x00, 0x00, 0x00, 0x0c, 0xf7, 0xff, 0xff, 0x08, 0x00, 0x00, 0x00,
  0x4c, 0x00, 0x00, 0x00, 0x08, 0x00, 0x00, 0x00, 0x00, 0x00, 0x00, 0x00,
  0x00, 0x00, 0x00, 0x00, 0x00, 0x00, 0x00, 0x00, 0x00, 0x00, 0x00, 0x00,
  0x00, 0x00, 0x00, 0x00, 0x00, 0x00, 0x00, 0x00, 0x00, 0x00, 0x00, 0x00,
  0x00, 0x00, 0x00, 0x00, 0x00, 0x00, 0x00, 0x00, 0x00, 0x00, 0x00, 0x00,
  0x00, 0x00, 0x00, 0x00, 0x00, 0x00, 0x00, 0x00, 0x00, 0x00, 0x00, 0x00,
  0x00, 0x00, 0x00, 0x00, 0x00, 0x00, 0x00, 0x00, 0x00, 0x00, 0x00, 0x00,
  0x00, 0x00, 0x00, 0x00, 0x08, 0x00, 0x00, 0x00, 0xe2, 0xc6, 0x29, 0x3b,
  0xe9, 0x5d, 0x33, 0x3b, 0x91, 0x93, 0x63, 0x3b, 0xaa, 0xaf, 0x1d, 0x3b,
  0x37, 0x07, 0x5b, 0x3b, 0xcb, 0x77, 0xd0, 0x3a, 0xa5, 0xdb, 0x47, 0x3b,
  0x82, 0x98, 0x25, 0x3b, 0x18, 0x00, 0x00, 0x00, 0x73, 0x65, 0x71, 0x75,
  0x65, 0x6e, 0x74, 0x69, 0x61, 0x6c, 0x2f, 0x63, 0x6f, 0x6e, 0x76, 0x32,
  0x64, 0x2f, 0x43, 0x6f, 0x6e, 0x76, 0x32, 0x44, 0x00, 0x00, 0x00, 0x00,
  0x04, 0x00, 0x00, 0x00, 0x08, 0x00, 0x00, 0x00, 0x03, 0x00, 0x00, 0x00,
  0x03, 0x00, 0x00, 0x00, 0x01, 0x00, 0x00, 0x00, 0xea, 0xf7, 0xff, 0xff,
  0x00, 0x00, 0x00, 0x01, 0x14, 0x00, 0x00, 0x00, 0x84, 0x00, 0x00, 0x00,
  0x09, 0x00, 0x00, 0x00, 0x00, 0x00, 0x00, 0x02, 0xa8, 0x00, 0x00, 0x00,
  0xd4, 0xf7, 0xff, 0xff, 0x08, 0x00, 0x00, 0x00, 0x48, 0x00, 0x00, 0x00,
  0x08, 0x00, 0x00, 0x00, 0x00, 0x00, 0x00, 0x00, 0x00, 0x00, 0x00, 0x00,
  0x00, 0x00, 0x00, 0x00, 0x00, 0x00, 0x00, 0x00, 0x00, 0x00, 0x00, 0x00,
  0x00, 0x00, 0x00, 0x00, 0x00, 0x00, 0x00, 0x00, 0x00, 0x00, 0x00, 0x00,
  0x00, 0x00, 0x00, 0x00, 0x00, 0x00, 0x00, 0x00, 0x00, 0x00, 0x00, 0x00,
  0x00, 0x00, 0x00, 0x00, 0x00, 0x00, 0x00, 0x00, 0x00, 0x00, 0x00, 0x00,
  0x00, 0x00, 0x00, 0x00, 0x00, 0x00, 0x00, 0x00, 0x08, 0x00, 0x00, 0x00,
  0x54, 0x71, 0x2a, 0x37, 0xfc, 0x11, 0x34, 0x37, 0x0a, 0x78, 0x64, 0x37,
  0xf9, 0x4d, 0x1e, 0x37, 0x1b, 0xe3, 0x5b, 0x37, 0x15, 0x49, 0xd1, 0x36,
  0x4a, 0xa4, 0x48, 0x37, 0xc1, 0x3e, 0x26, 0x37, 0x28, 0x00, 0x00, 0x00,
  0x73, 0x65, 0x71, 0x75, 0x65, 0x6e, 0x74, 0x69, 0x61, 0x6c, 0x2f, 0x63,
  0x6f, 0x6e, 0x76, 0x32, 0x64, 0x2f, 0x42, 0x69, 0x61, 0x73, 0x41, 0x64,
  0x64, 0x2f, 0x52, 0x65, 0x61, 0x64, 0x56, 0x61, 0x72, 0x69, 0x61, 0x62,
  0x6c, 0x65, 0x4f, 0x70, 0x00, 0x00, 0x00, 0x00, 0x01, 0x00, 0x00, 0x00,
  0x08, 0x00, 0x00, 0x00, 0xb2, 0xf8, 0xff, 0xff, 0x00, 0x00, 0x00, 0x01,
  0x14, 0x00, 0x00, 0x00, 0xe8, 0x00, 0x00, 0x00, 0x08, 0x00, 0x00, 0x00,
  0x00, 0x00, 0x00, 0x09, 0xfc, 0x00, 0x00, 0x00, 0x9c, 0xf8, 0xff, 0xff,
  0x08, 0x00, 0x00, 0x00, 0x8c, 0x00, 0x00, 0x00, 0x10, 0x00, 0x00, 0x00,
  0x00, 0x00, 0x00, 0x00, 0x00, 0x00, 0x00, 0x00, 0x00, 0x00, 0x00, 0x00,
  0x00, 0x00, 0x00, 0x00, 0x00, 0x00, 0x00, 0x00, 0x00, 0x00, 0x00, 0x00,
  0x00, 0x00, 0x00, 0x00, 0x00, 0x00, 0x00, 0x00, 0x00, 0x00, 0x00, 0x00,
  0x00, 0x00, 0x00, 0x00, 0x00, 0x00, 0x00, 0x00, 0x00, 0x00, 0x00, 0x00,
  0x00, 0x00, 0x00, 0x00, 0x00, 0x00, 0x00, 0x00, 0x00, 0x00, 0x00, 0x00,
  0x00, 0x00, 0x00, 0x00, 0x00, 0x00, 0x00, 0x00, 0x00, 0x00, 0x00, 0x00,
  0x00, 0x00, 0x00, 0x00, 0x00, 0x00, 0x00, 0x00, 0x00, 0x00, 0x00, 0x00,
  0x00, 0x00, 0x00, 0x00, 0x00, 0x00, 0x00, 0x00, 0x00, 0x00, 0x00, 0x00,
  0x00, 0x00, 0x00, 0x00, 0x00, 0x00, 0x00, 0x00, 0x00, 0x00, 0x00, 0x00,
  0x00, 0x00, 0x00, 0x00, 0x00, 0x00, 0x00, 0x00, 0x00, 0x00, 0x00, 0x00,
  0x00, 0x00, 0x00, 0x00, 0x00, 0x00, 0x00, 0x00, 0x00, 0x00, 0x00, 0x00,
  0x10, 0x00, 0x00, 0x00, 0x63, 0x76, 0x15, 0x3b, 0xce, 0x36, 0x33, 0x3b,
  0x78, 0x71, 0x2a, 0x3b, 0x39, 0x83, 0x15, 0x3b, 0x5a, 0x8e, 0x2b, 0x3b,
  0xe4, 0x67, 0x1e, 0x3b, 0x96, 0x25, 0x3d, 0x3b, 0xc2, 0xac, 0x31, 0x3b,
  0x9e, 0xa6, 0x37, 0x3b, 0xc7, 0xa9, 0x0c, 0x3b, 0x7c, 0xb9, 0x46, 0x3b,
  0x4e, 0xc0, 0x16, 0x3b, 0xa2, 0x48, 0x2d, 0x3b, 0x35, 0x82, 0x3b, 0x3b,
  0x84, 0xcb, 0x2e, 0x3b, 0x2a, 0xf4, 0x4c, 0x3b, 0x1a, 0x00, 0x00, 0x00,
  0x73, 0x65, 0x71, 0x75, 0x65, 0x6e, 0x74, 0x69, 0x61, 0x6c, 0x2f, 0x63,
  0x6f, 0x6e, 0x76, 0x32, 0x64, 0x5f, 0x31, 0x2f, 0x43, 0x6f, 0x6e, 0x76,
  0x32, 0x44, 0x00, 0x00, 0x04, 0x00, 0x00, 0x00, 0x10, 0x00, 0x00, 0x00,
  0x03, 0x00, 0x00, 0x00, 0x03, 0x00, 0x00, 0x00, 0x08, 0x00, 0x00, 0x00,
  0xda, 0xf9, 0xff, 0xff, 0x00, 0x00, 0x00, 0x01, 0x14, 0x00, 0x00, 0x00,
  0xe4, 0x00, 0x00, 0x00, 0x07, 0x00, 0x00, 0x00, 0x00, 0x00, 0x00, 0x02,
  0x08, 0x01, 0x00, 0x00, 0xc4, 0xf9, 0xff, 0xff, 0x08, 0x00, 0x00, 0x00,
  0x88, 0x00, 0x00, 0x00, 0x10, 0x00, 0x00, 0x00, 0x00, 0x00, 0x00, 0x00,
  0x00, 0x00, 0x00, 0x00, 0x00, 0x00, 0x00, 0x00, 0x00, 0x00, 0x00, 0x00,
  0x00, 0x00, 0x00, 0x00, 0x00, 0x00, 0x00, 0x00, 0x00, 0x00, 0x00, 0x00,
  0x00, 0x00, 0x00, 0x00, 0x00, 0x00, 0x00, 0x00, 0x00, 0x00, 0x00, 0x00,
  0x00, 0x00, 0x00, 0x00, 0x00, 0x00, 0x00, 0x00, 0x00, 0x00, 0x00, 0x00,
  0x00, 0x00, 0x00, 0x00, 0x00, 0x00, 0x00, 0x00, 0x00, 0x00, 0x00, 0x00,
  0x00, 0x00, 0x00, 0x00, 0x00, 0x00, 0x00, 0x00, 0x00, 0x00, 0x00, 0x00,
  0x00, 0x00, 0x00, 0x00, 0x00, 0x00, 0x00, 0x00, 0x00, 0x00, 0x00, 0x00,
  0x00, 0x00, 0x00, 0x00, 0x00, 0x00, 0x00, 0x00, 0x00, 0x00, 0x00, 0x00,
  0x00, 0x00, 0x00, 0x00, 0x00, 0x00, 0x00, 0x00, 0x00, 0x00, 0x00, 0x00,
  0x00, 0x00, 0x00, 0x00, 0x00, 0x00, 0x00, 0x00, 0x00, 0x00, 0x00, 0x00,
  0x00, 0x00, 0x00, 0x00, 0x10, 0x00, 0x00, 0x00, 0xfd, 0xd4, 0x54, 0x37,
  0xa3, 0x32, 0x7f, 0x37, 0x51, 0xb5, 0x72, 0x37, 0x44, 0xe7, 0x54, 0x37,
  0xfc, 0x4a, 0x74, 0x37, 0x34, 0x91, 0x61, 0x37, 0xc2, 0xab, 0x86, 0x37,
  0x85, 0x01, 0x7d, 0x37, 0x02, 0xc2, 0x82, 0x37, 0x4f, 0x4d, 0x48, 0x37,
  0x7d, 0x7d, 0x8d, 0x37, 0xc9, 0xaa, 0x56, 0x37, 0xc9, 0xc0, 0x76, 0x37,
  0x2a, 0x81, 0x85, 0x37, 0xb3, 0xe7, 0x78, 0x37, 0xe3, 0xec, 0x91, 0x37,
  0x2a, 0x00, 0x00, 0x00, 0x73, 0x65, 0x71, 0x75, 0x65, 0x6e, 0x74, 0x69,
  0x61, 0x6c, 0x2f, 0x63, 0x6f, 0x6e, 0x76, 0x32, 0x64, 0x5f, 0x31, 0x2f,
  0x42, 0x69, 0x61, 0x73, 0x41, 0x64, 0x64, 0x2f, 0x52, 0x65, 0x61, 0x64,
  0x56, 0x61, 0x72, 0x69, 0x61, 0x62, 0x6c, 0x65, 0x4f, 0x70, 0x00, 0x00,
  0x01, 0x00, 0x00, 0x00, 0x10, 0x00, 0x00, 0x00, 0x02, 0xfb, 0xff, 0xff,
  0x00, 0x00, 0x00, 0x01, 0x14, 0x00, 0x00, 0x00, 0xa8, 0x01, 0x00, 0x00,
  0x06, 0x00, 0x00, 0x00, 0x00, 0x00, 0x00, 0x09, 0xbc, 0x01, 0x00, 0x00,
  0xec, 0xfa, 0xff, 0xff, 0x08, 0x00, 0x00, 0x00, 0x0c, 0x01, 0x00, 0x00,
  0x20, 0x00, 0x00, 0x00, 0x00, 0x00, 0x00, 0x00, 0x00, 0x00, 0x00, 0x00,
  0x00, 0x00, 0x00, 0x00, 0x00, 0x00, 0x00, 0x00, 0x00, 0x00, 0x00, 0x00,
  0x00, 0x00, 0x00, 0x00, 0x00, 0x00, 0x00, 0x00, 0x00, 0x00, 0x00, 0x00,
  0x00, 0x00, 0x00, 0x00, 0x00, 0x00, 0x00, 0x00, 0x00, 0x00, 0x00, 0x00,
  0x00, 0x00, 0x00, 0x00, 0x00, 0x00, 0x00, 0x00, 0x00, 0x00, 0x00, 0x00,
  0x00, 0x00, 0x00, 0x00, 0x00, 0x00, 0x00, 0x00, 0x00, 0x00, 0x00, 0x00,
  0x00, 0x00, 0x00, 0x00, 0x00, 0x00, 0x00, 0x00, 0x00, 0x00, 0x00, 0x00,
  0x00, 0x00, 0x00, 0x00, 0x00, 0x00, 0x00, 0x00, 0x00, 0x00, 0x00, 0x00,
  0x00, 0x00, 0x00, 0x00, 0x00, 0x00, 0x00, 0x00, 0x00, 0x00, 0x00, 0x00,
  0x00, 0x00, 0x00, 0x00, 0x00, 0x00, 0x00, 0x00, 0x00, 0x00, 0x00, 0x00,
  0x00, 0x00, 0x00, 0x00, 0x00, 0x00, 0x00, 0x00, 0x00, 0x00, 0x00, 0x00,
  0x00, 0x00, 0x00, 0x00, 0x00, 0x00, 0x00, 0x00, 0x00, 0x00, 0x00, 0x00,
  0x00, 0x00, 0x00, 0x00, 0x00, 0x00, 0x00, 0x00, 0x00, 0x00, 0x00, 0x00,
  0x00, 0x00, 0x00, 0x00, 0x00, 0x00, 0x00, 0x00, 0x00, 0x00, 0x00, 0x00,
  0x00, 0x00, 0x00, 0x00, 0x00, 0x00, 0x00, 0x00, 0x00, 0x00, 0x00, 0x00,
  0x00, 0x00, 0x00, 0x00, 0x00, 0x00, 0x00, 0x00, 0x00, 0x00, 0x00, 0x00,
  0x00, 0x00, 0x00, 0x00, 0x00, 0x00, 0x00, 0x00, 0x00, 0x00, 0x00, 0x00,
  0x00, 0x00, 0x00, 0x00, 0x00, 0x00, 0x00, 0x00, 0x00, 0x00, 0x00, 0x00,
  0x00, 0x00, 0x00, 0x00, 0x00, 0x00, 0x00, 0x00, 0x00, 0x00, 0x00, 0x00,
  0x00, 0x00, 0x00, 0x00, 0x00, 0x00, 0x00, 0x00, 0x00, 0x00, 0x00, 0x00,
  0x00, 0x00, 0x00, 0x00, 0x00, 0x00, 0x00, 0x00, 0x00, 0x00, 0x00, 0x00,
  0x00, 0x00, 0x00, 0x00, 0x00, 0x00, 0x00, 0x00, 0x00, 0x00, 0x00, 0x00,
  0x20, 0x00, 0x00, 0x00, 0xb9, 0xd9, 0x2f, 0x3b, 0x2a, 0xc5, 0x0b, 0x3b,
  0x09, 0x36, 0x8a, 0x3a, 0xd4, 0x91, 0x39, 0x3b, 0xd8, 0x70, 0x17, 0x3b,
  0xc6, 0x57, 0x05, 0x3b, 0x8c, 0xd9, 0xeb, 0x3a, 0x5c, 0x02, 0x0d, 0x3b,
  0x24, 0x70, 0xbf, 0x3a, 0xd9, 0xa8, 0x27, 0x3b, 0x67, 0x79, 0x27, 0x3b,
  0x06, 0x89, 0x09, 0x3b, 0xeb, 0x8e, 0xab, 0x3a, 0x16, 0x03, 0xf0, 0x3a,
  0x8c, 0xb3, 0x03, 0x3b, 0x30, 0xc8, 0x20, 0x3b, 0x65, 0x8c, 0xeb, 0x3a,
  0x0d, 0xcb, 0xfc, 0x3a, 0x26, 0xde, 0x0c, 0x3b, 0x94, 0x0e, 0x17, 0x3b,
  0x8d, 0x07, 0xdc, 0x3a, 0xa2, 0xbe, 0x2e, 0x3b, 0x76, 0x41, 0xbf, 0x3a,
  0xcd, 0xa7, 0x12, 0x3b, 0xb1, 0x36, 0x23, 0x3b, 0x73, 0xf6, 0x0b, 0x3b,
  0xe5, 0xcd, 0x2c, 0x3b, 0x4c, 0xcf, 0xf6, 0x3a, 0x48, 0x1b, 0x08, 0x3b,
  0x6e, 0xbc, 0x16, 0x3b, 0xb2, 0x72, 0x21, 0x3b, 0x81, 0xd6, 0x1e, 0x3b,
  0x1a, 0x00, 0x00, 0x00, 0x73, 0x65, 0x71, 0x75, 0x65, 0x6e, 0x74, 0x69,
  0x61, 0x6c, 0x2f, 0x63, 0x6f, 0x6e, 0x76, 0x32, 0x64, 0x5f, 0x32, 0x2f,
  0x43, 0x6f, 0x6e, 0x76, 0x32, 0x44, 0x00, 0x00, 0x04, 0x00, 0x00, 0x00,
  0x20, 0x00, 0x00, 0x00, 0x03, 0x00, 0x00, 0x00, 0x03, 0x00, 0x00, 0x00,
  0x10, 0x00, 0x00, 0x00, 0xea, 0xfc, 0xff, 0xff, 0x00, 0x00, 0x00, 0x01,
  0x14, 0x00, 0x00, 0x00, 0xa4, 0x01, 0x00, 0x00, 0x05, 0x00, 0x00, 0x00,
  0x00, 0x00, 0x00, 0x02, 0xc8, 0x01, 0x00, 0x00, 0xd4, 0xfc, 0xff, 0xff,
  0x08, 0x00, 0x00, 0x00, 0x08, 0x01, 0x00, 0x00, 0x20, 0x00, 0x00, 0x00,
  0x00, 0x00, 0x00, 0x00, 0x00, 0x00, 0x00, 0x00, 0x00, 0x00, 0x00, 0x00,
  0x00, 0x00, 0x00, 0x00, 0x00, 0x00, 0x00, 0x00, 0x00, 0x00, 0x00, 0x00,
  0x00, 0x00, 0x00, 0x00, 0x00, 0x00, 0x00, 0x00, 0x00, 0x00, 0x00, 0x00,
  0x00, 0x00, 0x00, 0x00, 0x00, 0x00, 0x00, 0x00, 0x00, 0x00, 0x00, 0x00,
  0x00, 0x00, 0x00, 0x00, 0x00, 0x00, 0x00, 0x00, 0x00, 0x00, 0x00, 0x00,
  0x00, 0x00, 0x00, 0x00, 0x00, 0x00, 0x00, 0x00, 0x00, 0x00, 0x00, 0x00,
  0x00, 0x00, 0x00, 0x00, 0x00, 0x00, 0x00, 0x00, 0x00, 0x00, 0x00, 0x00,
  0x00, 0x00, 0x00, 0x00, 0x00, 0x00, 0x00, 0x00, 0x00, 0x00, 0x00, 0x00,
  0x00, 0x00, 0x00, 0x00, 0x00, 0x00, 0x00, 0x00, 0x00, 0x00, 0x00, 0x00,
  0x00, 0x00, 0x00, 0x00, 0x00, 0x00, 0x00, 0x00, 0x00, 0x00, 0x00, 0x00,
  0x00, 0x00, 0x00, 0x00, 0x00, 0x00, 0x00, 0x00, 0x00, 0x00, 0x00, 0x00,
  0x00, 0x00, 0x00, 0x00, 0x00, 0x00, 0x00, 0x00, 0x00, 0x00, 0x00, 0x00,
  0x00, 0x00, 0x00, 0x00, 0x00, 0x00, 0x00, 0x00, 0x00, 0x00, 0x00, 0x00,
  0x00, 0x00, 0x00, 0x00, 0x00, 0x00, 0x00, 0x00, 0x00, 0x00, 0x00, 0x00,
  0x00, 0x00, 0x00, 0x00, 0x00, 0x00, 0x00, 0x00, 0x00, 0x00, 0x00, 0x00,
  0x00, 0x00, 0x00, 0x00, 0x00, 0x00, 0x00, 0x00, 0x00, 0x00, 0x00, 0x00,
  0x00, 0x00, 0x00, 0x00, 0x00, 0x00, 0x00, 0x00, 0x00, 0x00, 0x00, 0x00,
  0x00, 0x00, 0x00, 0x00, 0x00, 0x00, 0x00, 0x00, 0x00, 0x00, 0x00, 0x00,
  0x00, 0x00, 0x00, 0x00, 0x00, 0x00, 0x00, 0x00, 0x00, 0x00, 0x00, 0x00,
  0x00, 0x00, 0x00, 0x00, 0x00, 0x00, 0x00, 0x00, 0x00, 0x00, 0x00, 0x00,
  0x00, 0x00, 0x00, 0x00, 0x00, 0x00, 0x00, 0x00, 0x00, 0x00, 0x00, 0x00,
  0x00, 0x00, 0x00, 0x00, 0x20, 0x00, 0x00, 0x00, 0x19, 0xa7, 0x15, 0x38,
  0x29, 0xe5, 0xed, 0x37, 0xd3, 0x3d, 0x6b, 0x37, 0x89, 0xec, 0x1d, 0x38,
  0x2a, 0xe1, 0x00, 0x38, 0xa1, 0xf4, 0xe2, 0x37, 0xa8, 0xb6, 0xc8, 0x37,
  0x0a, 0x01, 0xf0, 0x37, 0x09, 0xeb, 0xa2, 0x37, 0x9d, 0xae, 0x0e, 0x38,
  0x3c, 0x86, 0x0e, 0x38, 0x59, 0x17, 0xea, 0x37, 0xfe, 0xff, 0x91, 0x37,
  0x74, 0x41, 0xcc, 0x37, 0x63, 0x29, 0xe0, 0x37, 0x40, 0xd4, 0x08, 0x38,
  0x00, 0x75, 0xc8, 0x37, 0xf9, 0x21, 0xd7, 0x37, 0x68, 0xc3, 0xef, 0x37,
  0x89, 0x8d, 0x00, 0x38, 0x05, 0x40, 0xbb, 0x37, 0x2f, 0xb6, 0x14, 0x38,
  0x4f, 0xc3, 0xa2, 0x37, 0x3f, 0x9d, 0xf9, 0x37, 0x04, 0xe6, 0x0a, 0x38,
  0x0b, 0x39, 0xee, 0x37, 0x73, 0x0f, 0x13, 0x38, 0x6a, 0x0a, 0xd2, 0x37,
  0xd7, 0xa8, 0xe7, 0x37, 0xa0, 0x47, 0x00, 0x38, 0x5b, 0x65, 0x09, 0x38,
  0xb6, 0x2c, 0x07, 0x38, 0x2a, 0x00, 0x00, 0x00, 0x73, 0x65, 0x71, 0x75,
  0x65, 0x6e, 0x74, 0x69, 0x61, 0x6c, 0x2f, 0x63, 0x6f, 0x6e, 0x76, 0x32,
  0x64, 0x5f, 0x32, 0x2f, 0x42, 0x69, 0x61, 0x73, 0x41, 0x64, 0x64, 0x2f,
  0x52, 0x65, 0x61, 0x64, 0x56, 0x61, 0x72, 0x69, 0x61, 0x62, 0x6c, 0x65,
  0x4f, 0x70, 0x00, 0x00, 0x01, 0x00, 0x00, 0x00, 0x20, 0x00, 0x00, 0x00,
  0xd2, 0xfe, 0xff, 0xff, 0x00, 0x00, 0x00, 0x01, 0x14, 0x00, 0x00, 0x00,
  0x30, 0x00, 0x00, 0x00, 0x04, 0x00, 0x00, 0x00, 0x00, 0x00, 0x00, 0x09,
  0x44, 0x00, 0x00, 0x00, 0xbc, 0xfe, 0xff, 0xff, 0x08, 0x00, 0x00, 0x00,
  0x10, 0x00, 0x00, 0x00, 0x01, 0x00, 0x00, 0x00, 0x00, 0x00, 0x00, 0x00,
  0x00, 0x00, 0x00, 0x00, 0x01, 0x00, 0x00, 0x00, 0x8a, 0x22, 0x3f, 0x3b,
  0x18, 0x00, 0x00, 0x00, 0x73, 0x65, 0x71, 0x75, 0x65, 0x6e, 0x74, 0x69,
  0x61, 0x6c, 0x2f, 0x79, 0x5f, 0x70, 0x72, 0x65, 0x64, 0x2f, 0x4d, 0x61,
  0x74, 0x4d, 0x75, 0x6c, 0x00, 0x00, 0x00, 0x00, 0x02, 0x00, 0x00, 0x00,
  0x02, 0x00, 0x00, 0x00, 0x00, 0x02, 0x00, 0x00, 0x3a, 0xff, 0xff, 0xff,
  0x00, 0x00, 0x00, 0x01, 0x14, 0x00, 0x00, 0x00, 0x34, 0x00, 0x00, 0x00,
  0x03, 0x00, 0x00, 0x00, 0x00, 0x00, 0x00, 0x02, 0x58, 0x00, 0x00, 0x00,
  0x24, 0xff, 0xff, 0xff, 0x08, 0x00, 0x00, 0x00, 0x14, 0x00, 0x00, 0x00,
  0x01, 0x00, 0x00, 0x00, 0x00, 0x00, 0x00, 0x00, 0x00, 0x00, 0x00, 0x00,
  0x00, 0x00, 0x00, 0x00, 0x01, 0x00, 0x00, 0x00, 0x17, 0x5a, 0x9d, 0x38,
  0x28, 0x00, 0x00, 0x00, 0x73, 0x65, 0x71, 0x75, 0x65, 0x6e, 0x74, 0x69,
  0x61, 0x6c, 0x2f, 0x79, 0x5f, 0x70, 0x72, 0x65, 0x64, 0x2f, 0x42, 0x69,
  0x61, 0x73, 0x41, 0x64, 0x64, 0x2f, 0x52, 0x65, 0x61, 0x64, 0x56, 0x61,
  0x72, 0x69, 0x61, 0x62, 0x6c, 0x65, 0x4f, 0x70, 0x00, 0x00, 0x00, 0x00,
  0x01, 0x00, 0x00, 0x00, 0x02, 0x00, 0x00, 0x00, 0xb2, 0xff, 0xff, 0xff,
  0x00, 0x00, 0x00, 0x01, 0x18, 0x00, 0x00, 0x00, 0x18, 0x00, 0x00, 0x00,
  0x02, 0x00, 0x00, 0x00, 0x00, 0x00, 0x00, 0x02, 0x2c, 0x00, 0x00, 0x00,
  0x04, 0x00, 0x04, 0x00, 0x04, 0x00, 0x00, 0x00, 0x18, 0x00, 0x00, 0x00,
  0x73, 0x65, 0x71, 0x75, 0x65, 0x6e, 0x74, 0x69, 0x61, 0x6c, 0x2f, 0x66,
  0x6c, 0x61, 0x74, 0x74, 0x65, 0x6e, 0x2f, 0x43, 0x6f, 0x6e, 0x73, 0x74,
  0x00, 0x00, 0x00, 0x00, 0x01, 0x00, 0x00, 0x00, 0x02, 0x00, 0x00, 0x00,
  0x00, 0x00, 0x16, 0x00, 0x1c, 0x00, 0x18, 0x00, 0x17, 0x00, 0x10, 0x00,
  0x0c, 0x00, 0x08, 0x00, 0x00, 0x00, 0x00, 0x00, 0x00, 0x00, 0x07, 0x00,
  0x16, 0x00, 0x00, 0x00, 0x00, 0x00, 0x00, 0x01, 0x20, 0x00, 0x00, 0x00,
  0x3c, 0x00, 0x00, 0x00, 0x01, 0x00, 0x00, 0x00, 0x00, 0x00, 0x00, 0x09,
  0x48, 0x00, 0x00, 0x00, 0x0c, 0x00, 0x0c, 0x00, 0x00, 0x00, 0x00, 0x00,
  0x08, 0x00, 0x04, 0x00, 0x0c, 0x00, 0x00, 0x00, 0x08, 0x00, 0x00, 0x00,
  0x10, 0x00, 0x00, 0x00, 0x01, 0x00, 0x00, 0x00, 0x80, 0xff, 0xff, 0xff,
  0xff, 0xff, 0xff, 0xff, 0x01, 0x00, 0x00, 0x00, 0x81, 0x80, 0x80, 0x3b,
  0x13, 0x00, 0x00, 0x00, 0x73, 0x65, 0x72, 0x76, 0x69, 0x6e, 0x67, 0x5f,
  0x64, 0x65, 0x66, 0x61, 0x75, 0x6c, 0x74, 0x5f, 0x78, 0x3a, 0x30, 0x00,
  0x04, 0x00, 0x00, 0x00, 0x01, 0x00, 0x00, 0x00, 0x20, 0x00, 0x00, 0x00,
  0x20, 0x00, 0x00, 0x00, 0x01, 0x00, 0x00, 0x00, 0x05, 0x00, 0x00, 0x00,
  0x68, 0x00, 0x00, 0x00, 0x48, 0x00, 0x00, 0x00, 0x38, 0x00, 0x00, 0x00,
  0x18, 0x00, 0x00, 0x00, 0x04, 0x00, 0x00, 0x00, 0xb8, 0xff, 0xff, 0xff,
  0x19, 0x00, 0x00, 0x00, 0x02, 0x00, 0x00, 0x00, 0x00, 0x00, 0x00, 0x19,
  0xc8, 0xff, 0xff, 0xff, 0x09, 0x00, 0x00, 0x00, 0x04, 0x00, 0x00, 0x00,
  0x00, 0x00, 0x00, 0x09, 0x0c, 0x00, 0x0c, 0x00, 0x0b, 0x00, 0x00, 0x00,
  0x00, 0x00, 0x04, 0x00, 0x0c, 0x00, 0x00, 0x00, 0x16, 0x00, 0x00, 0x00,
  0x00, 0x00, 0x00, 0x16, 0xf0, 0xff, 0xff, 0xff, 0x11, 0x00, 0x00, 0x00,
  0x02, 0x00, 0x00, 0x00, 0x00, 0x00, 0x00, 0x11, 0x0c, 0x00, 0x10, 0x00,
  0x0f, 0x00, 0x00, 0x00, 0x08, 0x00, 0x04, 0x00, 0x0c, 0x00, 0x00, 0x00,
  0x03, 0x00, 0x00, 0x00, 0x03, 0x00, 0x00, 0x00, 0x00, 0x00, 0x00, 0x03
};

const int g_sign_detect_model_data_len = 12360;
